00
00
00
00
01
00
ff
00
ff
00
00
00
00
ff
00
00
00
00
00
fe
00
00
ff
00
00
ff
00
01
00
ff
00
00
00
00
00
00
00
00
00
00
07
00
00
00
00
00
ff
00
00
01
00
00
00
00
00
01
00
00
00
00
00
00
00
01
00
00
00
00
00
00
ff
00
00
00
00
00
ff
00
00
01
00
00
00
00
00
01
00
00
00
00
01
00
00
00
03
00
01
01
00
ff
00
00
00
00
00
00
00
00
00
00
00
00
00
fe
00
ff
00
ff
01
00
00
02
00
00
00
00
00
00
00
01
ff
01
00
00
00
00
01
00
01
00
00
00
00
00
01
00
00
00
00
00
00
00
00
00
00
00
00
00
00
00
00
00
00
00
00
00
00
00
00
00
00
00
00
00
00
00
00
00
00
00
00
00
00
00
00
00
00
00
00
00
00
00
00
00
00
00
00
00
00
ff
00
00
ff
00
00
00
00
00
00
00
00
ff
00
00
ff
00
00
00
00
00
01
01
00
00
00
00
01
00
00
00
01
00
00
00
00
00
00
00
ff
00
00
00
00
00
fe
00
00
ff
00
00
00
00
00
00
00
00
00
00
00
03
00
00
00
00
00
00
00
00
00
00
00
00
00
00
00
00
00
00
00
00
00
00
00
ff
00
00
00
00
ff
00
00
ff
00
00
ff
00
00
01
00
00
00
01
00
ff
01
00
00
00
00
01
00
00
00
00
00
00
00
00
00
00
01
00
00
00
00
ff
00
00
ff
00
00
fd
00
00
00
00
00
ff
00
00
ff
00
01
00
00
00
00
00
00
00
00
00
00
00
00
ff
00
00
01
00
00
01
00
00
fe
00
00
00
00
00
00
ff
00
00
00
00
00
00
ff
00
00
00
00
00
00
ff
00
00
01
00
00
00
00
00
00
00
01
ff
00
ff
fc
00
00
00
00
00
ff
ff
00
00
01
ff
00
00
00
00
00
00
00
00
00
00
00
ff
00
00
ff
00
00
00
00
00
00
00
00
00
00
00
00
01
00
00
00
00
00
00
00
00
00
ff
00
00
00
02
01
00
01
ff
00
00
00
00
00
00
00
00
00
00
00
00
00
00
ff
00
00
00
00
ff
00
00
00
00
00
00
00
00
00
ff
00
00
ff
00
00
00
00
ff
00
ff
01
01
00
00
00
01
00
00
00
00
01
00
00
00
00
00
00
00
00
00
00
01
02
01
00
00
00
00
00
00
00
00
00
00
01
01
00
02
00
00
00
00
00
00
00
01
00
00
00
00
00
00
ff
00
01
00
01
00
00
00
00
00
00
00
01
01
00
00
00
ff
00
00
00
00
00
00
00
00
ff
02
01
00
01
00
00
00
00
00
ff
00
00
fe
ff
00
00
00
00
00
01
00
ff
00
00
00
00
00
00
00
00
00
00
ff
00
00
00
00
00
00
00
00
00
00
01
00
00
00
00
00
00
00
01
00
00
ff
00
00
00
00
00
00
00
00
00
ff
00
00
00
00
00
00
ff
00
00
00
00
00
01
00
00
00
00
00
00
00
00
00
00
00
00
00
00
00
ff
ff
00
01
00
00
00
00
00
00
00
00
00
00
00
00
00
00
00
00
00
00
00
00
ff
00
ff
fd
ff
00
00
00
00
00
00
ff
ff
00
00
00
00
00
00
00
00
ff
00
00
00
00
00
00
00
00
02
01
00
00
00
00
00
00
00
00
00
00
00
00
00
00
00
00
02
01
00
00
00
00
00
00
00
00
00
ff
ff
fe
00
00
00
00
00
00
00
00
00
00
00
00
02
01
00
00
00
00
00
00
00
00
00
00
00
01
00
00
00
00
00
00
00
00
ff
00
00
fe
00
00
fc
00
00
00
00
01
01
00
00
00
00
00
00
00
00
00
00
ff
00
00
00
fe
ff
00
00
00
00
00
00
ff
00
00
00
00
00
00
00
00
00
00
00
ff
00
ff
00
02
00
00
ff
00
00
00
00
00
00
00
00
00
00
00
ff
00
00
fe
00
00
00
00
00
00
00
00
02
00
01
00
00
00
00
00
01
00
00
00
ff
00
00
00
00
00
00
00
00
01
01
00
00
00
01
00
00
00
00
00
00
00
00
00
00
ff
00
00
00
00
00
00
00
00
00
00
00
00
00
00
00
00
ff
00
01
01
00
00
00
ff
ff
ff
00
00
ff
00
00
00
00
01
02
00
00
01
00
00
00
00
00
00
00
ff
00
00
00
ff
ff
00
ff
00
00
00
00
ff
00
00
ff
01
00
00
00
00
00
00
00
00
00
00
00
00
00
00
00
00
01
01
00
00
00
00
00
ff
00
00
00
00
00
01
00
00
00
00
00
00
00
00
01
00
ff
00
00
00
00
01
00
00
00
00
ff
00
00
00
00
01
00
00
01
00
01
00
fe
00
00
00
00
00
fe
00
ff
fe
00
00
01
00
00
ff
00
00
ff
00
00
00
00
00
00
00
00
00
01
00
00
00
00
ff
00
00
ff
ff
00
00
00
00
01
00
00
01
01
00
01
00
00
00
00
ff
01
00
ff
00
00
00
00
00
00
ff
00
00
00
00
00
00
00
fe
ff
ff
00
fe
00
fe
ff
00
ff
01
01
00
01
00
00
ff
00
00
00
00
00
00
00
00
00
00
00
00
00
00
00
00
00
00
00
00
00
00
00
00
00
00
00
00
00
00
00
ff
01
00
00
00
00
00
00
00
01
00
00
01
00
00
00
ff
00
00
00
00
00
00
00
01
03
01
00
00
00
01
ff
01
00
fe
00
00
ff
ff
00
00
00
00
00
00
00
00
00
00
ff
00
00
ff
00
00
00
00
00
01
00
00
01
00
00
01
00
00
01
00
01
00
00
00
00
00
00
ff
00
00
00
00
00
ff
00
00
00
00
00
ff
ff
00
00
ff
00
ff
00
00
00
00
00
00
00
ff
ff
00
ff
ff
00
00
ff
00
ff
00
00
01
01
00
00
00
00
00
00
00
ff
ff
00
00
ff
00
00
00
01
00
03
01
00
01
00
00
00
00
00
00
00
00
01
00
00
00
00
00
00
00
00
01
00
00
00
00
00
00
00
ff
00
00
00
00
00
01
00
00
00
00
00
00
00
00
00
00
00
00
00
00
01
00
00
01
00
00
00
01
00
00
00
00
01
00
01
01
01
01
00
00
00
00
00
00
00
01
00
00
00
00
00
00
00
00
00
ff
ff
00
00
00
00
00
00
00
00
02
ff
00
00
fc
00
00
fe
00
00
00
00
00
00
00
00
00
00
00
00
00
00
00
00
00
ff
00
00
00
00
01
00
00
00
01
00
01
00
00
00
00
00
00
ff
00
01
00
00
00
00
00
01
00
00
00
00
00
00
ff
00
00
00
00
00
00
00
00
00
00
00
01
00
00
00
00
01
00
00
00
01
00
00
00
00
00
00
00
00
01
00
01
00
00
01
01
01
ff
00
00
00
00
00
00
00
00
00
00
00
00
00
00
00
00
00
00
00
00
fe
ff
00
00
01
00
00
00
00
00
00
00
00
ff
00
00
00
00
01
ff
00
01
ff
00
00
00
ff
00
01
00
00
ff
00
00
00
00
00
ff
00
00
01
00
00
00
00
00
00
00
00
02
00
00
00
00
00
00
00
00
00
00
00
00
00
00
00
00
00
ff
00
00
00
00
00
00
00
01
00
00
00
00
00
01
00
00
00
01
00
00
00
00
00
00
ff
00
01
ff
01
00
00
00
00
00
00
00
00
00
00
00
00
00
00
00
00
00
00
01
01
00
00
00
00
ff
00
00
ff
00
00
00
00
00
00
00
00
00
00
00
ff
00
00
00
00
00
00
00
00
ff
00
00
00
ff
01
00
00
02
01
00
00
00
01
00
00
ff
00
00
ff
00
00
00
ff
00
00
00
00
00
00
00
00
01
00
00
00
00
00
01
00
00
00
00
00
00
01
00
00
04
01
ff
00
00
00
00
00
00
ff
00
00
00
00
ff
00
00
00
ff
00
00
ff
00
00
ff
00
ff
fb
00
00
ff
01
00
00
00
00
00
00
00
ff
00
00
01
00
00
00
00
00
00
00
01
01
00
00
00
00
00
00
00
00
00
00
00
ff
00
00
00
00
00
02
01
ff
01
00
ff
00
00
00
ff
00
ff
00
00
ff
00
ff
01
00
00
00
00
01
ff
ff
00
00
01
00
01
00
00
ff
00
00
00
00
00
00
00
00
00
01
00
00
00
00
00
01
00
00
00
00
00
ff
00
00
00
00
00
00
00
01
01
00
00
00
00
01
00
00
00
00
00
00
00
00
00
00
00
01
00
00
00
00
00
00
00
00
00
ff
00
00
ff
00
ff
fe
00
00
01
00
00
00
00
ff
ff
00
00
01
00
00
00
00
00
01
00
00
00
00
00
00
00
00
01
00
00
00
00
00
ff
00
00
00
00
00
00
00
00
00
00
00
00
00
00
00
00
00
00
00
00
00
00
00
01
00
00
00
00
ff
ff
00
00
ff
00
ff
00
00
00
00
00
ff
00
00
00
ff
00
00
00
00
00
00
00
00
00
00
00
00
00
00
00
00
ff
00
ff
00
ff
00
00
00
00
00
ff
ff
00
00
00
00
00
00
00
fe
00
00
ff
00
00
01
01
ff
00
00
00
00
00
00
00
00
00
00
00
00
01
00
00
00
00
00
01
00
00
00
00
ff
00
00
00
01
01
00
00
00
00
01
00
01
ff
00
00
00
00
01
01
01
01
ff
00
00
ff
00
ff
ff
00
00
00
00
00
00
00
00
ff
00
00
00
00
00
02
00
00
00
00
00
01
00
00
00
00
00
ff
00
00
00
00
00
00
00
00
00
00
00
00
00
00
00
00
fe
00
00
00
04
01
00
03
00
00
00
00
ff
ff
00
00
00
00
00
01
00
00
00
00
00
00
00
00
00
00
00
00
00
00
00
00
00
00
00
00
00
00
00
00
01
00
00
00
00
03
00
01
00
ff
00
00
00
00
01
00
ff
ff
00
00
00
00
02
01
00
00
00
00
00
00
00
ff
fe
00
00
fd
00
00
ff
00
00
00
00
00
00
00
00
00
00
00
00
00
00
ff
00
ff
00
00
02
04
01
00
00
00
00
00
00
00
00
00
00
00
00
00
00
00
00
00
00
00
00
00
00
01
01
01
00
00
00
00
00
00
01
00
00
00
00
01
00
00
00
fe
00
00
ff
00
00
00
00
00
00
00
00
ff
00
01
02
00
fe
00
ff
00
01
00
ff
00
00
ff
00
00
00
01
00
00
00
00
00
00
00
01
02
01
ff
00
00
ff
00
00
01
03
01
00
00
00
00
00
00
00
ff
00
00
00
00
00
ff
ff
01
00
00
00
00
00
01
00
00
00
00
00
01
00
00
00
00
00
00
01
00
00
02
00
01
00
00
01
01
00
00
00
00
ff
00
00
00
00
00
00
00
00
00
00
ff
00
00
00
01
00
00
00
00
00
ff
ff
00
ff
00
00
00
02
00
02
03
00
00
00
00
00
00
ff
00
00
00
ff
01
00
ff
ff
00
00
00
00
00
00
00
00
00
00
00
00
00
ff
00
00
00
00
00
02
00
00
02
00
00
00
00
00
00
00
00
00
00
00
00
00
00
ff
00
00
00
ff
00
00
00
00
00
00
00
00
00
00
00
00
00
00
01
00
00
00
ff
00
01
00
00
00
01
00
00
00
00
00
00
01
01
00
01
00
00
00
00
00
ff
00
00
00
00
00
00
01
00
00
00
00
00
00
00
00
00
00
00
00
00
00
00
00
00
00
00
00
ff
00
00
00
00
00
00
00
ff
00
00
ff
00
00
00
00
00
00
00
00
00
00
01
01
00
00
01
01
00
ff
00
00
00
00
01
00
00
00
01
00
00
ff
ff
00
ff
ff
00
00
00
00
00
00
00
00
00
01
00
00
00
00
ff
ff
00
ff
ff
00
00
00
00
00
00
00
00
00
00
00
00
04
01
00
01
00
00
00
00
00
01
00
00
00
00
00
00
00
00
00
00
00
00
00
00
00
01
00
00
00
00
00
01
00
00
00
00
00
00
00
00
00
00
00
ff
01
ff
00
00
00
00
00
00
00
00
00
ff
00
00
00
00
00
ff
00
00
01
00
00
00
00
00
00
00
00
00
00
00
00
00
00
00
00
00
00
00
00
00
00
01
00
00
00
00
00
00
00
00
00
00
ff
00
00
00
00
00
00
00
00
00
02
00
00
01
00
00
00
00
00
ff
00
00
00
00
00
00
01
00
00
00
00
01
00
00
00
00
00
00
00
00
00
00
ff
00
00
00
00
fe
00
ff
ff
00
00
00
00
02
00
00
00
02
00
00
00
00
00
00
00
ff
00
00
00
00
01
00
00
00
00
00
00
ff
ff
00
00
00
00
ff
00
00
01
00
00
00
00
00
00
00
00
00
00
00
00
01
00
00
00
00
00
00
00
ff
00
ff
00
ff
ff
00
00
00
00
00
00
00
00
00
00
ff
00
00
00
00
ff
00
00
00
ff
00
00
00
01
ff
00
00
00
00
00
ff
00
00
00
00
01
fe
00
00
00
00
00
00
ff
00
00
00
00
00
00
00
01
00
00
00
00
00
01
00
00
00
00
00
00
01
00
ff
fe
ff
00
ff
00
00
00
00
ff
fe
00
fe
ff
00
ff
00
00
00
ff
ff
00
ff
00
00
00
00
00
00
00
00
ff
00
00
00
00
00
ff
00
00
00
00
ff
00
00
01
00
00
00
00
00
01
00
00
ff
00
00
00
ff
ff
ff
ff
00
fe
fe
ff
ff
fe
00
ff
00
ff
00
ff
ff
ff
ff
00
00
fe
00
00
00
00
00
00
00
00
00
00
00
00
ff
00
01
00
00
00
00
00
01
00
00
00
00
00
00
00
00
00
00
00
01
00
00
00
00
00
00
00
01
00
00
00
00
00
00
00
00
00
00
00
00
00
00
00
01
00
00
00
00
00
00
00
00
00
00
00
00
00
00
00
00
01
00
00
00
00
00
00
00
00
00
00
00
00
00
00
01
00
00
00
00
00
00
00
00
00
00
00
ff
00
00
00
00
00
02
01
00
00
00
01
00
00
00
fe
ff
00
ff
00
00
ff
00
00
00
00
00
00
00
00
00
00
00
00
ff
00
00
ff
00
ff
00
00
00
00
00
00
00
00
00
00
00
00
00
ff
00
00
00
00
00
00
00
00
00
00
01
00
01
02
00
01
02
01
00
00
00
00
00
00
00
00
00
ff
ff
00
00
00
00
00
01
00
00
00
00
00
00
00
00
00
00
00
ff
00
00
00
00
00
00
00
00
fe
00
ff
00
00
00
00
ff
00
01
01
00
00
00
00
00
00
ff
00
01
00
00
00
00
00
00
00
01
00
ff
00
00
ff
00
00
00
01
00
00
01
00
00
00
00
00
00
00
00
00
00
00
00
00
ff
00
01
00
01
00
00
00
00
ff
00
00
00
00
00
00
00
00
01
00
00
01
01
00
00
00
00
00
00
00
00
00
00
00
00
00
ff
ff
00
ff
00
00
00
00
00
00
00
00
ff
ff
00
01
00
00
00
00
00
00
00
00
00
00
00
02
01
00
02
00
00
00
01
00
00
00
00
02
01
00
00
00
01
ff
ff
ff
00
00
ff
00
00
00
00
00
00
01
00
00
00
01
00
00
00
ff
00
00
00
00
00
00
00
00
00
00
00
00
00
00
00
00
00
01
00
01
00
00
00
00
00
00
00
00
00
00
00
00
00
00
00
00
01
01
01
ff
00
00
00
00
00
00
00
00
00
01
00
00
00
00
00
00
00
00
00
00
03
00
ff
00
00
00
00
ff
01
00
00
00
01
00
00
00
00
00
00
00
00
00
00
00
ff
00
ff
00
00
00
00
00
01
ff
00
00
fe
00
00
00
00
00
00
00
00
ff
ff
00
ff
00
00
ff
ff
00
00
00
00
00
ff
00
00
00
00
00
00
00
00
00
00
00
00
ff
ff
00
00
00
00
ff
00
00
00
ff
00
00
00
00
ff
00
00
00
01
00
ff
01
00
00
00
00
ff
00
00
00
00
00
00
00
00
00
00
00
ff
00
00
ff
00
00
00
01
01
00
00
00
00
00
00
00
00
00
00
00
00
00
00
00
01
00
00
00
00
00
00
00
00
00
02
01
00
00
00
00
ff
ff
00
ff
00
00
00
00
00
00
00
00
00
00
00
01
00
00
00
00
00
01
ff
00
00
ff
00
02
00
00
ff
00
00
ff
00
00
00
01
00
00
00
00
00
00
01
00
00
00
ff
00
00
00
ff
00
00
00
00
ff
00
00
00
00
00
00
00
00
00
00
ff
ff
00
00
00
00
00
00
00
00
01
00
00
01
00
00
ff
00
00
00
01
01
00
00
00
ff
ff
ff
01
00
00
00
00
00
00
00
00
00
00
00
00
00
00
00
00
00
00
00
00
ff
00
00
01
00
00
01
00
00
00
00
00
ff
ff
00
00
00
00
00
00
00
00
ff
00
00
00
00
01
00
00
00
00
00
00
00
00
01
00
00
00
01
00
00
00
00
ff
00
00
00
00
00
01
00
00
00
00
00
00
00
00
00
00
00
00
00
00
01
01
01
00
00
00
00
00
00
00
00
00
00
00
00
00
00
00
01
00
00
00
00
00
01
01
00
00
00
00
00
00
00
00
00
00
00
00
00
00
00
00
00
00
00
00
00
00
00
ff
00
00
00
ff
00
00
00
00
ff
00
00
00
00
00
00
00
00
00
00
ff
00
00
01
01
00
01
01
00
00
00
00
00
ff
ff
00
00
00
01
00
00
00
00
00
00
00
00
00
00
00
00
00
00
01
00
00
01
00
00
ff
00
00
00
00
00
00
01
00
00
00
00
00
00
00
00
00
00
00
ff
00
00
00
00
00
00
00
01
00
00
01
00
ff
01
02
00
00
ff
ff
00
00
00
00
00
00
00
ff
00
00
00
00
00
01
01
00
00
00
00
00
00
00
00
00
ff
ff
00
ff
00
00
00
01
00
ff
00
00
00
00
00
00
00
ff
00
00
00
00
00
00
00
00
00
00
00
00
00
00
00
00
00
ff
00
00
00
00
00
00
ff
00
01
00
ff
00
ff
ff
01
00
ff
00
00
00
ff
00
00
00
ff
00
ff
00
00
00
00
00
00
00
00
00
00
00
01
00
00
01
01
00
00
00
00
00
00
00
01
00
00
00
00
01
00
00
00
00
00
00
00
00
00
00
00
00
00
00
00
00
00
00
00
00
00
00
00
00
00
00
00
00
00
00
00
ff
00
00
00
00
00
00
00
00
00
00
00
00
00
00
00
00
00
00
00
00
00
00
00
00
00
01
00
00
00
01
00
00
00
00
00
00
00
00
00
00
00
01
00
00
00
00
01
00
00
00
00
00
00
00
00
00
00
00
00
01
00
00
00
ff
00
00
00
00
00
00
00
00
00
00
00
00
00
00
00
00
00
00
00
00
00
00
00
00
00
00
01
00
00
00
00
00
00
00
00
00
00
ff
00
00
00
ff
00
00
00
00
00
00
00
01
00
00
02
00
00
01
00
00
00
fe
ff
00
00
00
00
00
00
00
00
01
00
01
00
ff
00
00
00
00
ff
00
00
01
00
00
00
00
00
00
00
01
00
00
00
00
00
00
00
ff
00
00
00
00
00
01
00
00
00
00
00
ff
00
00
01
00
00
00
00
00
00
00
00
00
00
00
00
00
00
ff
00
00
00
00
00
01
00
00
00
00
00
00
00
00
00
00
01
00
00
00
00
00
00
00
01
00
00
00
00
00
00
00
00
00
00
00
01
00
00
01
00
00
00
00
01
00
00
00
00
00
00
00
00
02
00
00
00
00
00
00
00
00
00
00
00
00
00
00
00
00
00
00
00
ff
00
00
00
00
00
00
01
00
00
00
01
01
ff
00
01
00
00
00
ff
00
00
00
00
00
01
00
00
00
00
00
ff
00
00
00
00
00
00
00
00
00
00
00
00
00
00
fe
ff
00
00
00
00
00
ff
00
00
ff
00
00
ff
00
00
ff
00
00
00
00
00
00
00
00
00
00
ff
00
00
00
00
00
00
00
00
00
00
00
ff
00
ff
02
02
00
00
01
00
00
00
01
ff
00
00
00
00
00
00
00
00
01
00
00
00
00
00
00
00
00
00
00
00
00
00
ff
02
00
00
00
ff
00
00
00
00
00
00
00
00
00
00
00
00
01
01
00
00
ff
ff
00
ff
00
00
00
00
00
01
00
00
00
00
00
01
01
01
00
00
00
00
00
00
00
00
00
ff
00
ff
00
00
00
00
00
00
00
00
01
00
00
00
00
00
00
00
00
00
00
00
00
00
00
00
01
01
00
00
00
00
00
00
ff
ff
00
00
ff
ff
00
00
ff
00
00
00
00
00
00
00
00
00
00
ff
ff
00
ff
00
00
00
00
01
00
00
01
00
01
00
01
00
00
01
01
00
00
00
01
00
00
00
00
00
ff
00
01
00
00
01
00
ff
00
00
00
00
00
00
00
00
00
00
00
00
00
00
00
00
00
ff
00
00
00
00
00
00
ff
00
00
00
00
00
00
01
00
01
01
00
00
00
00
00
00
00
00
00
00
00
ff
ff
00
00
00
ff
00
00
00
00
00
00
00
00
01
00
00
00
00
00
00
00
00
00
00
00
00
ff
00
00
00
01
01
00
fd
ff
00
fe
00
ff
00
00
00
01
00
00
01
00
00
00
00
00
ff
ff
ff
00
00
00
00
00
00
02
00
00
01
ff
00
00
00
00
01
00
00
00
00
00
ff
00
00
00
00
00
ff
ff
00
00
00
00
00
00
00
00
00
00
00
00
00
00
00
00
00
00
00
00
00
00
00
00
00
00
00
00
00
00
00
00
00
00
00
02
00
00
00
00
00
01
00
00
01
00
00
ff
00
00
00
00
00
00
00
00
00
00
00
ff
00
ff
00
00
00
ff
00
00
00
00
00
00
00
00
00
00
00
00
00
01
00
00
01
00
00
00
00
00
00
ff
00
00
ff
00
00
01
00
00
00
00
00
00
01
01
00
00
00
01
00
00
00
00
00
ff
00
00
01
00
ff
00
00
00
00
00
00
00
00
01
00
00
01
00
00
01
00
00
00
00
00
ff
ff
00
00
00
00
00
00
00
00
00
00
00
00
00
00
00
00
00
00
00
00
03
01
00
00
00
00
ff
00
00
00
00
00
00
01
00
00
00
ff
00
00
ff
00
ff
00
00
00
01
00
00
00
00
00
ff
ff
00
00
ff
ff
00
00
00
00
ff
01
00
00
00
00
00
00
00
ff
00
00
00
00
00
00
00
00
00
ff
00
00
ff
00
00
00
00
ff
00
00
00
00
00
00
00
ff
00
00
00
00
00
00
00
00
00
00
00
01
00
00
00
00
00
00
01
00
00
00
ff
00
00
00
ff
00
00
00
00
00
00
00
00
00
00
00
00
00
00
01
ff
00
01
00
00
01
00
00
00
01
00
00
00
00
00
00
00
00
00
00
00
00
00
00
00
00
01
00
00
00
00
00
00
00
00
00
00
00
00
00
00
00
00
00
00
00
00
00
00
00
00
00
00
00
00
00
00
00
00
00
ff
00
00
00
00
00
ff
00
01
00
00
00
00
00
fe
fe
00
00
fe
00
00
00
00
00
00
00
01
00
00
01
00
00
00
00
00
00
00
00
00
01
00
00
00
01
00
00
00
00
00
00
00
00
00
00
00
00
00
00
00
00
ff
00
00
00
01
00
ff
00
00
00
00
00
00
00
00
00
00
01
00
00
00
00
00
00
00
00
00
00
00
00
00
00
00
00
00
00
00
00
00
00
00
ff
00
00
00
00
00
00
00
00
00
ff
00
ff
00
00
00
ff
00
00
00
00
00
00
00
00
00
00
00
01
01
00
00
00
00
00
00
00
01
00
00
00
00
00
ff
00
ff
00
00
00
00
00
01
00
00
00
00
00
ff
ff
01
00
00
00
00
00
00
00
ff
00
00
00
00
00
00
ff
00
00
00
00
00
00
00
00
00
ff
00
00
ff
ff
ff
00
00
ff
00
ff
00
01
00
00
00
00
00
00
ff
00
00
01
00
00
00
00
ff
00
00
00
ff
00
00
00
00
00
00
00
00
ff
00
00
00
ff
00
00
00
01
03
00
00
00
00
00
00
01
00
00
00
01
00
00
00
00
01
00
00
01
00
00
00
00
01
00
01
00
00
01
01
00
00
00
00
00
00
00
00
02
00
00
00
00
00
00
00
00
00
00
00
00
00
00
00
00
00
00
00
00
00
00
00
00
00
00
01
00
00
00
00
00
ff
00
00
00
00
ff
00
00
00
00
00
00
00
00
00
ff
ff
ff
00
00
00
00
00
00
01
00
ff
00
ff
00
00
00
01
00
00
01
00
00
ff
00
00
00
00
00
ff
00
00
00
00
00
ff
00
00
00
00
00
ff
00
00
00
01
01
00
01
00
00
00
00
00
ff
ff
00
00
00
00
00
00
01
00
00
00
00
00
ff
00
00
00
00
00
00
00
00
00
00
00
00
00
00
00
00
00
00
00
00
00
ff
00
00
ff
00
00
00
00
00
00
00
00
ff
00
00
ff
00
00
ff
00
00
00
00
00
00
00
00
00
00
00
00
00
00
00
00
00
00
ff
00
01
00
00
00
00
00
00
00
00
00
00
00
00
00
00
00
01
00
00
00
00
00
ff
00
01
00
00
01
00
00
00
00
ff
00
00
01
01
00
00
01
00
00
01
00
01
01
00
00
00
00
00
00
00
00
00
01
00
00
00
00
00
00
00
00
00
00
00
00
00
00
00
00
00
00
00
00
00
00
00
00
00
01
00
00
00
00
ff
00
00
00
ff
00
00
00
00
00
00
00
00
00
00
00
00
00
00
00
00
01
00
00
00
00
00
00
00
00
01
ff
00
00
00
00
00
01
00
00
00
00
00
00
00
00
00
01
00
01
00
ff
01
00
00
00
00
01
00
00
00
00
00
02
00
01
00
00
00
00
00
00
00
00
00
00
00
00
00
00
00
00
00
01
ff
00
00
ff
00
00
00
00
00
00
00
00
00
00
00
ff
00
ff
00
02
00
00
00
00
00
00
00
00
ff
ff
00
00
00
00
00
00
00
00
00
00
00
00
01
00
00
00
00
00
00
00
00
00
00
01
00
00
00
ff
00
00
00
00
00
ff
00
00
00
00
00
01
00
00
01
00
00
00
01
00
00
fe
00
00
01
00
00
00
ff
ff
00
00
00
00
00
01
00
00
ff
ff
ff
ff
00
00
00
00
00
01
00
00
01
00
01
00
00
00
00
00
ff
00
00
00
ff
00
00
01
00
00
01
00
00
00
00
01
00
00
00
00
00
00
00
ff
00
00
00
00
ff
00
00
00
00
00
00
00
00
00
ff
00
00
ff
00
00
00
00
01
00
00
00
00
00
ff
ff
00
00
00
00
01
01
00
00
00
00
00
00
00
00
00
ff
00
00
00
00
00
00
00
01
00
00
ff
00
00
00
00
00
00
00
00
00
00
00
03
00
00
00
00
00
00
01
00
01
00
ff
00
00
01
00
00
00
00
00
01
00
00
00
ff
00
00
00
00
00
00
00
01
00
00
00
fe
00
00
00
00
00
00
00
00
00
00
00
00
00
00
00
00
00
ff
00
00
00
00
00
00
00
00
00
01
00
00
ff
00
00
ff
00
00
00
00
00
00
ff
fe
00
00
00
00
00
00
00
00
00
00
00
00
00
00
00
00
00
00
01
01
01
00
01
00
00
01
01
00
ff
00
00
00
00
00
00
00
00
ff
00
00
01
01
00
00
ff
00
02
00
00
00
00
00
01
00
00
ff
ff
00
ff
00
00
01
00
00
02
00
01
01
ff
ff
00
00
00
00
00
00
00
00
00
00
00
00
00
00
00
00
00
00
00
00
00
00
00
00
00
00
00
00
00
00
00
00
00
01
00
01
00
00
00
00
00
00
00
00
00
00
00
00
00
00
00
00
00
00
00
00
00
00
ff
00
00
00
00
00
00
00
01
00
00
00
00
00
00
00
00
00
00
00
00
00
00
00
00
00
01
00
00
01
00
00
00
ff
00
00
ff
00
00
00
00
00
00
00
00
00
00
00
ff
00
00
00
00
00
00
00
00
00
00
ff
00
00
ff
ff
00
00
00
00
00
00
00
ff
ff
00
00
00
00
00
00
00
01
00
00
00
00
00
00
00
00
00
00
00
00
00
00
00
00
00
00
00
00
00
00
00
00
00
00
00
00
00
00
00
00
00
00
00
00
00
00
00
00
00
00
00
00
00
00
00
00
00
00
00
00
00
fe
00
00
00
00
ff
00
00
00
00
00
00
00
00
00
00
00
00
ff
00
00
00
00
00
ff
00
00
00
01
00
00
00
00
00
00
00
00
ff
01
00
ff
00
00
01
00
00
ff
01
00
00
00
00
00
00
01
00
00
00
00
00
01
00
00
00
00
00
00
00
00
01
00
00
00
00
00
00
00
00
00
00
00
00
00
00
00
00
00
00
ff
00
ff
00
00
00
00
ff
00
00
00
00
00
00
ff
00
00
00
00
00
00
ff
00
00
ff
00
00
01
01
01
00
00
00
00
00
00
00
00
ff
01
00
00
00
00
00
01
00
00
00
00
00
00
00
00
00
00
00
00
00
00
00
00
00
00
00
00
00
00
00
ff
00
ff
00
00
00
00
00
00
00
00
00
00
00
00
01
00
ff
ff
00
00
00
00
00
00
00
00
00
00
00
00
00
00
00
ff
00
00
00
00
ff
00
00
ff
00
00
00
ff
ff
00
ff
01
01
00
00
01
00
00
00
00
00
00
00
00
00
00
00
00
00
00
00
00
ff
00
00
00
00
00
00
00
00
00
00
00
01
00
00
00
00
00
00
00
00
00
00
00
ff
00
00
00
00
00
ff
00
00
ff
ff
ff
00
00
00
00
ff
00
00
00
00
00
00
00
00
00
00
01
03
00
00
00
00
00
00
00
00
02
00
00
00
00
00
ff
00
00
00
00
00
00
00
00
00
00
00
00
00
00
00
00
ff
ff
00
00
ff
00
00
01
00
00
00
00
ff
00
00
00
00
00
00
00
00
00
ff
00
00
00
00
00
00
00
00
00
00
00
01
00
00
ff
00
fe
fe
00
00
01
00
00
00
00
00
ff
ff
00
00
00
00
00
00
ff
00
01
00
01
00
00
00
00
00
00
00
00
00
00
00
00
00
ff
00
01
ff
00
00
00
00
00
00
00
00
00
01
00
00
00
00
00
00
00
00
00
00
00
01
00
00
00
01
00
00
00
ff
00
00
00
00
00
00
00
00
00
00
00
00
00
00
00
00
00
00
00
00
00
00
00
00
00
00
ff
00
00
00
00
00
00
00
00
00
fe
00
00
ff
00
00
00
00
00
00
00
00
00
00
00
00
00
fe
00
ff
00
03
00
00
00
00
00
00
00
00
01
00
00
00
00
00
ff
00
ff
00
ff
00
ff
00
00
00
00
00
01
01
01
00
00
00
00
00
ff
00
00
00
01
00
ff
00
00
00
ff
00
00
00
00
01
ff
00
00
ff
ff
00
00
00
00
00
00
00
00
00
00
00
01
00
00
00
ff
00
00
00
00
00
00
00
00
00
01
00
ff
00
00
00
00
01
00
00
00
ff
00
00
00
00
00
00
00
00
00
ff
00
00
01
00
00
00
00
00
00
00
00
00
00
00
00
00
00
00
00
00
ff
ff
00
00
00
00
ff
00
ff
01
00
ff
ff
00
00
00
00
00
00
00
00
fe
00
00
00
00
00
00
00
01
00
00
00
00
00
00
00
00
00
00
00
00
00
00
ff
fe
ff
ff
00
00
00
00
00
00
00
00
00
01
00
00
00
00
ff
ff
ff
00
00
00
00
ff
ff
00
ff
00
00
00
00
01
00
00
01
00
00
01
00
00
00
00
00
00
ff
00
00
fe
00
01
00
00
ff
ff
00
00
ff
00
01
01
00
00
ff
00
00
00
00
01
00
00
00
00
00
00
00
00
00
00
00
00
ff
00
ff
ff
00
00
ff
00
00
00
00
00
01
00
00
ff
00
00
00
00
00
01
01
00
00
ff
00
ff
00
00
00
01
00
00
00
00
02
03
00
ff
00
00
ff
00
00
ff
00
00
01
00
00
ff
00
ff
01
00
00
00
00
00
00
ff
ff
00
00
01
00
00
01
00
00
00
00
00
00
00
ff
00
00
ff
ff
00
00
00
00
00
01
02
00
00
00
00
ff
00
00
00
ff
00
00
00
00
00
00
00
00
00
00
00
00
00
00
00
00
ff
00
00
00
00
01
00
00
00
00
00
00
fe
fe
00
00
00
00
00
02
00
00
00
00
00
01
00
00
00
00
00
00
00
00
00
00
00
00
00
00
00
00
00
00
00
ff
ff
00
01
00
00
00
00
00
00
00
00
00
00
00
00
00
00
00
00
00
00
00
00
00
ff
00
00
00
01
01
00
00
00
00
00
ff
00
00
00
00
00
00
00
00
00
ff
00
00
00
00
00
00
00
00
00
00
ff
00
00
ff
00
00
00
00
00
00
00
01
00
00
00
00
00
00
01
01
00
00
00
00
00
00
00
00
00
00
00
00
00
00
00
00
00
00
00
00
00
00
00
00
00
00
00
00
ff
ff
00
00
ff
00
00
00
00
00
00
00
00
00
00
00
ff
00
00
00
00
00
00
00
00
00
00
00
00
00
00
00
00
00
00
00
00
00
00
ff
00
00
00
00
00
00
ff
00
00
00
01
01
00
ff
00
00
00
00
ff
ff
ff
00
00
00
00
00
00
00
00
00
00
00
00
00
00
00
00
00
00
01
ff
00
00
00
00
ff
00
00
00
00
00
00
00
ff
ff
ff
00
00
00
00
00
00
00
00
01
00
00
00
01
00
00
00
00
00
00
00
00
00
ff
00
ff
00
00
ff
fe
00
00
00
00
00
00
00
00
00
ff
00
00
00
00
00
00
00
00
00
00
00
ff
00
00
00
00
00
00
00
00
00
00
00
00
00
01
01
01
01
00
00
00
00
00
ff
ff
00
00
00
00
00
00
00
00
00
00
00
00
00
00
00
01
00
00
00
00
00
00
00
00
01
00
00
00
ff
00
01
00
01
01
00
00
00
00
00
00
00
00
00
00
00
00
00
00
00
00
00
00
00
00
00
00
00
00
00
00
00
00
ff
00
00
00
00
00
00
00
00
00
00
ff
00
02
00
00
00
00
00
00
00
00
00
00
00
00
00
01
00
00
00
00
00
00
01
02
00
ff
00
00
00
00
00
00
00
00
00
01
00
00
02
00
00
00
00
00
ff
00
00
00
01
00
00
00
00
01
00
00
00
00
00
00
00
00
00
00
00
00
00
ff
ff
00
ff
ff
00
00
00
00
00
00
00
00
00
00
00
00
00
ff
ff
00
ff
00
00
00
00
00
00
00
00
00
00
00
00
00
00
01
01
00
00
00
ff
00
00
00
ff
00
00
ff
00
00
00
00
00
00
00
00
00
00
00
01
00
00
01
00
00
00
ff
00
00
00
01
00
00
00
00
00
00
00
01
01
00
00
00
00
00
00
00
00
00
00
01
01
00
00
00
00
00
00
00
00
00
00
00
00
00
00
00
00
00
00
00
00
00
00
02
00
ff
00
00
00
00
ff
01
00
00
00
00
00
00
00
00
00
00
00
00
00
00
01
00
01
00
01
00
00
00
00
00
00
00
00
00
00
01
00
00
00
00
00
00
00
00
00
00
00
00
ff
00
00
00
ff
00
01
00
00
00
00
ff
00
00
00
00
00
00
ff
00
00
00
00
00
ff
00
00
00
00
00
00
00
00
00
00
00
00
00
00
00
00
ff
fe
00
00
00
01
ff
00
00
ff
01
00
ff
00
00
00
00
ff
00
00
01
00
00
00
00
00
00
00
00
00
01
00
00
01
01
00
00
00
00
00
00
00
ff
ff
00
ff
00
00
00
00
01
01
01
00
00
00
00
00
00
00
ff
00
00
00
ff
ff
ff
ff
ff
00
00
00
00
00
00
00
00
00
00
00
00
00
01
01
00
00
00
00
00
00
00
00
ff
00
00
00
00
00
00
02
01
02
00
00
00
00
00
00
00
00
ff
ff
00
00
00
00
00
00
00
00
00
00
00
00
00
00
00
00
00
00
00
00
00
ff
00
fe
00
00
ff
ff
00
00
ff
00
01
00
00
00
00
00
00
00
00
00
01
00
00
00
00
00
00
ff
00
ff
00
00
00
00
00
ff
00
00
00
00
00
00
00
00
00
00
00
00
00
00
ff
00
ff
00
01
00
00
00
00
00
00
00
00
00
00
01
00
00
00
00
00
00
00
00
00
00
00
ff
00
00
ff
00
00
00
00
ff
00
00
00
00
00
00
00
00
00
00
00
ff
00
00
00
00
00
00
00
00
00
01
01
ff
fe
ff
00
ff
00
00
01
00
00
00
00
00
00
00
00
00
00
00
00
00
ff
ff
00
ff
ff
00
01
01
00
01
00
00
00
00
00
00
00
00
01
02
00
00
00
00
00
00
00
ff
00
00
00
00
00
00
01
00
00
00
00
00
ff
00
00
00
01
00
00
00
01
00
00
00
00
ff
00
ff
00
01
01
00
00
00
00
00
00
00
01
00
00
01
00
00
ff
00
00
00
00
00
ff
ff
00
00
00
00
00
00
00
01
00
00
fe
00
00
00
00
00
00
00
00
00
ff
00
00
ff
00
00
ff
ff
00
ff
00
ff
00
00
00
fe
00
00
00
00
00
00
00
00
00
00
00
00
00
00
00
00
ff
ff
00
00
00
00
01
00
00
00
00
00
00
00
00
00
00
00
ff
ff
00
00
00
00
00
00
01
00
00
00
ff
ff
00
00
01
00
01
00
00
00
00
00
00
00
00
00
00
00
00
00
00
00
00
00
01
01
00
00
00
00
01
00
ff
01
01
00
00
00
00
00
00
00
00
01
00
00
00
00
00
00
00
00
ff
00
01
00
00
00
00
00
00
01
00
00
01
00
00
00
ff
01
00
01
00
00
00
02
01
00
ff
fd
00
00
00
00
00
01
00
00
00
00
00
00
00
00
00
00
00
00
00
00
00
00
00
ff
00
00
00
00
00
00
00
00
00
01
00
00
00
01
00
00
ff
ff
ff
00
00
00
00
00
01
00
00
00
00
00
00
ff
ff
00
00
ff
00
01
00
00
01
01
01
00
00
00
00
00
00
00
00
00
00
00
00
00
00
00
00
00
00
ff
ff
00
00
ff
00
00
00
00
00
00
01
00
01
00
00
00
00
00
00
00
ff
ff
ff
ff
00
00
00
00
00
00
00
00
00
00
00
ff
00
00
01
02
01
00
00
00
01
00
00
00
00
00
00
00
00
00
00
00
00
00
01
00
00
00
00
00
00
00
00
00
00
00
00
00
00
01
00
00
00
00
00
00
00
00
00
00
00
00
00
00
00
00
00
00
00
00
00
00
00
00
01
00
00
00
00
00
00
00
00
00
00
00
00
fe
00
00
00
00
00
02
00
00
00
00
00
00
00
00
00
00
00
00
00
ff
ff
ff
ff
fe
00
ff
00
00
00
00
00
00
00
00
00
00
00
00
00
ff
00
00
00
00
00
00
00
00
00
00
fe
00
00
00
00
00
00
00
00
00
00
00
00
00
00
00
00
00
00
00
00
00
00
00
00
00
00
00
00
00
00
00
00
ff
00
00
00
00
00
00
00
00
00
00
00
00
00
00
ff
00
00
00
00
00
00
00
00
01
00
00
00
00
00
00
ff
00
00
00
00
00
00
00
01
ff
00
00
00
ff
ff
00
00
00
00
01
00
00
01
00
00
00
01
00
01
00
00
00
00
00
00
00
00
00
00
00
00
00
00
00
00
00
00
00
00
00
00
00
00
ff
00
00
00
00
00
00
00
00
00
00
00
00
00
00
00
00
ff
ff
00
00
00
00
ff
ff
00
00
00
00
00
00
ff
00
00
ff
00
00
00
01
01
00
00
00
00
00
00
ff
00
ff
00
00
00
01
ff
00
00
00
00
00
00
00
00
00
00
00
00
01
00
01
00
00
00
00
00
01
00
00
00
ff
00
00
00
00
00
01
00
00
00
00
00
00
00
01
00
00
00
00
00
ff
00
00
00
00
00
00
00
00
00
00
00
00
00
00
ff
00
00
00
00
00
ff
ff
00
00
00
00
01
02
00
00
00
00
01
01
00
01
00
00
00
00
00
00
ff
00
00
00
00
ff
ff
00
00
00
00
00
00
00
00
ff
00
00
00
00
00
00
00
00
00
00
00
00
00
00
00
00
ff
00
ff
00
00
00
01
01
01
00
00
00
00
00
00
00
00
00
01
00
00
00
ff
00
00
00
00
00
00
00
ff
00
00
00
00
00
00
00
00
00
00
00
00
00
00
00
00
00
00
00
ff
ff
00
00
00
00
00
00
00
00
00
00
00
00
00
00
00
00
ff
00
00
00
01
01
01
00
00
00
00
00
00
ff
ff
00
01
01
00
02
03
00
00
00
00
00
00
00
00
00
00
00
00
00
00
00
00
00
00
00
00
00
00
ff
00
00
ff
ff
00
00
00
00
00
00
ff
00
00
00
00
00
00
00
00
00
00
00
00
00
00
00
00
00
00
00
00
01
00
00
00
00
00
00
00
00
00
00
00
00
fe
ff
ff
00
00
00
00
00
00
00
00
00
00
00
00
01
00
00
01
00
00
00
00
00
00
00
00
00
00
00
00
00
00
00
00
00
00
00
00
00
00
00
01
00
01
00
00
00
00
00
00
00
00
00
00
00
00
00
00
00
00
00
00
00
00
00
00
00
00
00
ff
00
00
00
00
00
01
00
00
00
00
01
01
00
00
00
00
00
ff
ff
00
00
00
01
00
00
00
00
ff
00
00
00
00
00
00
00
00
00
00
00
00
01
00
00
00
00
00
00
00
00
ff
ff
00
00
00
00
00
00
00
00
00
00
00
01
00
00
00
00
00
00
00
00
00
00
ff
00
00
ff
01
00
ff
00
00
00
00
00
00
00
00
00
00
00
00
00
00
00
00
00
00
01
01
00
00
00
00
00
00
00
02
00
00
01
00
00
00
00
00
00
00
00
00
00
00
00
00
00
00
00
00
00
00
00
00
00
00
ff
00
00
fe
00
01
00
00
ff
ff
00
00
01
00
01
01
00
00
00
00
00
00
00
00
01
00
00
00
00
00
00
00
00
00
00
ff
00
00
00
00
00
00
00
00
00
ff
00
00
00
00
00
00
00
00
00
00
00
00
ff
01
00
00
00
00
00
00
00
00
00
00
00
02
01
00
00
00
00
01
00
00
00
00
00
ff
00
00
00
00
00
00
00
00
ff
00
00
fe
00
00
00
00
00
00
00
00
01
00
00
00
00
00
00
ff
00
ff
ff
00
ff
fd
ff
ff
00
00
00
00
00
00
00
00
ff
00
ff
00
00
00
00
00
00
ff
00
00
00
00
00
01
02
00
00
00
00
00
00
00
00
00
00
00
00
00
00
ff
00
00
00
00
ff
00
00
00
00
00
00
00
00
00
00
00
00
00
00
01
01
00
00
00
00
01
00
00
00
00
ff
00
00
00
00
00
00
00
00
00
00
00
00
ff
00
00
00
00
00
00
00
00
ff
00
00
00
ff
00
00
ff
00
00
00
00
00
00
00
00
00
01
00
00
00
00
00
01
ff
00
00
00
00
00
ff
fe
00
00
ff
00
00
00
00
00
01
00
ff
00
ff
00
00
01
ff
00
00
00
01
00
00
00
00
00
00
00
fe
ff
00
ff
00
00
00
00
00
00
00
00
01
00
00
00
00
01
00
ff
00
00
00
00
00
00
00
00
fe
00
01
00
01
01
00
ff
00
00
00
00
00
00
00
00
ff
00
00
00
01
00
00
00
00
00
00
00
00
00
00
00
00
00
00
00
00
00
00
ff
00
00
00
00
00
00
00
00
00
01
02
00
ff
00
ff
00
00
00
00
00
00
00
00
00
ff
ff
00
00
00
00
00
00
00
00
00
00
00
00
00
00
00
00
00
00
00
00
01
00
fe
00
00
00
ff
00
00
00
00
01
01
00
00
00
ff
00
00
00
00
00
00
00
ff
ff
00
00
00
ff
00
00
00
00
00
00
00
ff
00
00
00
00
00
01
01
02
00
00
01
00
00
00
00
00
00
00
00
ff
00
00
00
00
00
00
00
00
00
00
00
00
00
00
00
ff
00
00
00
ff
00
01
00
00
ff
ff
00
fe
00
00
00
01
00
00
00
ff
00
01
ff
00
00
00
00
ff
00
ff
ff
ff
00
00
00
01
00
00
00
fe
00
00
00
ff
ff
01
00
00
00
00
00
00
00
01
00
02
01
00
00
00
00
00
00
00
00
00
00
00
00
00
00
02
00
00
01
00
00
00
00
00
00
00
00
00
00
00
00
00
ff
00
00
00
00
00
ff
00
00
00
00
01
00
00
00
00
00
00
00
00
00
00
00
00
00
00
00
00
01
00
00
00
00
00
00
00
00
00
00
01
00
00
00
00
01
00
00
00
00
00
00
00
00
00
00
00
ff
00
00
fe
00
00
00
00
00
00
00
00
00
00
01
00
01
00
fe
00
00
00
00
01
00
00
00
00
00
00
00
00
00
00
00
00
00
00
00
00
ff
00
01
00
01
00
00
00
00
00
00
ff
00
00
01
00
ff
00
00
ff
00
ff
00
00
00
00
00
00
00
00
00
01
00
01
01
00
00
00
00
00
00
00
00
00
00
00
00
00
00
00
00
ff
00
00
ff
00
00
00
00
00
00
00
00
00
00
00
00
ff
01
ff
00
01
00
01
00
00
ff
00
01
ff
ff
00
00
00
00
ff
00
00
ff
01
00
00
02
00
00
ff
01
00
00
00
00
00
00
00
00
00
00
00
00
00
ff
00
00
00
00
00
00
00
ff
ff
00
00
00
00
00
00
00
01
00
fe
00
00
00
00
00
00
00
00
00
00
00
01
00
00
00
01
00
00
00
00
00
00
01
01
00
01
00
ff
00
01
00
01
01
00
00
fe
01
01
00
00
01
01
00
00
ff
00
00
00
ff
00
00
00
00
00
ff
00
02
00
00
00
00
00
00
00
00
00
00
00
00
00
00
00
00
00
00
00
00
00
00
00
00
00
00
00
00
00
00
00
00
00
00
00
00
00
ff
00
00
00
ff
00
01
00
00
00
00
00
00
00
01
00
00
00
ff
00
ff
00
00
01
00
01
00
00
00
00
00
ff
00
00
00
ff
00
00
01
00
ff
00
00
00
01
00
00
01
ff
00
00
00
00
00
00
ff
ff
00
00
00
00
00
ff
00
00
00
01
00
00
01
00
ff
00
00
ff
01
00
00
01
00
00
00
00
00
00
00
01
00
00
00
00
00
ff
ff
00
00
00
00
00
00
00
00
00
00
00
00
00
ff
01
00
00
01
01
00
00
00
00
00
00
00
00
00
00
01
00
00
00
00
ff
00
00
00
00
00
ff
01
00
00
00
00
00
00
00
00
00
00
00
00
00
00
00
00
ff
01
00
00
00
00
00
00
00
00
01
00
00
01
ff
00
00
ff
ff
00
00
00
00
00
01
00
ff
00
ff
01
00
00
00
ff
00
01
00
00
01
01
00
01
01
00
00
01
00
00
00
00
00
00
00
00
ff
00
ff
00
00
ff
00
00
ff
00
00
01
00
00
00
00
00
00
00
00
00
00
00
00
00
01
00
00
00
00
01
00
ff
00
00
00
00
00
00
01
00
00
00
00
00
00
00
00
00
00
00
00
00
00
00
00
00
00
00
00
00
00
00
00
ff
01
00
00
00
fe
00
00
fe
00
00
00
00
01
00
00
00
00
00
01
00
01
00
01
ff
00
00
01
00
ff
01
00
00
00
00
00
00
00
00
00
01
00
00
01
00
00
00
00
00
00
03
00
00
01
00
00
00
01
00
00
00
00
ff
01
ff
00
00
fe
00
00
fe
00
00
ff
00
01
00
00
00
ff
00
00
00
00
01
00
00
00
00
00
ff
ff
ff
00
00
00
ff
00
ff
ff
00
00
00
01
00
00
00
00
01
00
01
00
00
00
00
00
00
00
00
00
00
00
00
00
00
00
00
00
00
00
00
00
00
00
00
00
00
00
ff
00
00
00
00
00
00
00
00
00
00
ff
00
00
00
00
00
ff
ff
00
00
00
ff
00
00
ff
00
00
00
00
02
00
00
00
00
00
ff
ff
00
01
ff
00
00
ff
00
00
00
00
00
00
00
00
00
00
00
ff
01
01
00
00
00
01
00
00
00
00
00
00
00
00
00
00
01
01
00
00
00
00
00
01
01
00
00
00
00
00
ff
02
00
01
00
00
00
00
00
ff
00
00
00
00
00
ff
00
00
ff
00
02
00
00
ff
00
00
ff
00
00
00
00
00
01
00
00
00
00
ff
00
00
00
00
00
00
ff
00
00
00
00
00
00
00
00
00
00
00
00
00
00
00
00
00
00
00
00
00
00
00
01
01
00
02
01
ff
00
ff
ff
ff
00
ff
ff
00
00
00
00
01
00
ff
01
fe
ff
00
00
00
00
00
00
00
00
00
00
00
00
00
ff
00
01
00
00
00
00
00
01
00
01
00
00
00
01
ff
ff
00
00
00
00
ff
00
00
00
00
02
00
00
00
00
00
00
00
ff
00
00
00
00
00
00
00
00
00
00
ff
ff
00
00
ff
00
00
ff
00
00
00
00
00
00
00
00
00
01
00
01
00
00
00
00
00
00
00
00
02
00
ff
00
00
ff
00
ff
ff
01
01
00
00
00
00
00
00
ff
ff
00
ff
00
00
ff
00
00
00
00
00
00
ff
ff
00
ff
ff
00
00
00
00
00
00
ff
00
01
00
ff
00
fe
00
00
fe
00
00
00
00
00
00
00
ff
00
00
00
00
ff
00
00
ff
ff
01
00
00
00
00
00
00
00
00
00
00
00
00
ff
00
00
ff
00
00
ff
00
00
00
00
00
00
00
00
ff
00
01
01
01
01
00
ff
00
00
00
ff
00
00
00
00
00
00
ff
00
00
00
00
00
00
00
00
00
00
00
01
00
00
00
00
00
00
00
01
00
00
00
ff
00
00
00
00
00
00
00
01
00
01
00
00
00
00
00
00
fe
00
00
00
00
00
00
00
00
01
01
00
00
00
00
00
00
ff
00
00
00
ff
ff
00
00
00
ff
ff
ff
ff
00
00
ff
00
00
00
00
00
00
00
00
00
00
00
00
ff
00
00
00
00
00
00
00
00
00
01
01
00
00
01
ff
00
00
ff
00
00
00
00
00
00
00
00
00
00
00
00
01
00
00
00
00
00
00
00
00
00
00
00
00
00
00
ff
00
00
00
00
00
00
00
00
00
00
00
00
00
00
00
00
00
00
00
00
00
00
01
01
00
00
01
00
00
02
01
00
00
00
00
00
00
00
00
00
00
00
00
00
00
00
00
01
00
01
01
00
00
00
00
00
00
00
00
00
ff
00
00
00
00
00
00
01
00
00
00
01
00
00
00
00
ff
00
00
00
00
00
00
00
ff
00
ff
00
00
00
00
ff
00
01
00
00
00
00
00
01
00
01
00
ff
00
01
00
00
00
01
00
00
00
00
01
01
00
00
00
00
00
01
00
00
00
00
ff
00
00
00
00
00
00
00
00
00
00
01
00
00
00
01
01
02
00
00
00
00
00
ff
00
00
00
ff
01
01
00
00
00
00
00
00
00
00
00
00
00
00
00
00
00
00
00
00
00
02
01
00
00
00
00
00
00
01
00
00
00
ff
00
00
00
00
00
00
00
00
00
00
00
00
00
00
00
00
ff
01
00
00
00
00
00
00
00
01
00
01
01
00
01
00
00
00
ff
00
00
00
00
00
01
02
01
00
00
00
00
01
00
00
00
00
00
00
00
01
00
ff
00
01
00
00
00
00
00
01
00
00
01
00
00
00
00
ff
01
00
01
00
00
00
ff
00
00
00
00
00
01
00
ff
ff
00
ff
00
00
00
00
00
00
00
00
00
00
00
00
00
00
00
00
00
00
00
01
00
00
00
00
01
00
01
00
00
00
00
00
00
00
00
00
00
00
00
00
00
00
00
00
00
ff
00
00
00
00
00
00
00
00
01
00
00
01
ff
00
00
00
00
00
00
00
00
00
00
00
00
01
ff
00
00
00
00
00
00
00
00
00
01
00
02
00
00
00
00
00
01
01
00
00
ff
00
00
00
00
00
00
00
00
00
00
00
ff
00
00
ff
00
00
ff
00
01
00
00
01
01
00
00
00
00
00
ff
ff
ff
ff
00
ff
00
00
fe
00
00
00
ff
00
00
01
00
00
00
01
00
00
ff
00
00
00
00
00
00
00
00
00
00
00
00
00
ff
00
00
00
00
00
00
ff
00
ff
00
00
00
00
00
00
00
00
00
00
00
00
00
00
ff
00
ff
ff
00
00
00
00
00
01
00
00
00
00
00
01
00
00
00
00
00
00
00
00
00
01
00
01
00
00
00
00
00
00
00
00
00
00
00
00
00
00
00
00
00
00
01
00
00
00
00
00
02
00
ff
00
00
00
00
00
00
00
00
00
01
00
01
02
00
00
00
01
00
00
00
00
00
ff
ff
00
00
ff
00
00
00
00
01
00
00
00
00
00
00
ff
00
ff
00
00
00
00
00
00
00
00
00
00
00
00
00
00
00
00
00
00
00
01
00
00
00
00
00
00
ff
00
00
00
00
ff
00
00
00
00
00
00
00
00
00
00
00
00
00
00
00
01
00
00
00
00
00
ff
fe
00
00
00
00
00
ff
00
00
ff
00
01
00
00
01
00
00
01
00
00
00
00
00
00
00
ff
ff
ff
00
00
00
01
00
00
01
00
ff
00
00
00
00
00
00
00
00
00
00
01
00
00
00
01
00
01
00
00
ff
00
00
00
00
00
00
00
00
00
01
01
00
00
01
00
00
00
00
00
ff
ff
00
00
00
00
00
02
00
00
01
01
00
00
01
00
00
00
00
00
01
00
00
01
00
00
00
00
00
00
00
00
00
00
ff
01
00
ff
00
00
00
00
00
00
00
00
ff
ff
00
00
00
00
ff
fe
ff
ff
ff
00
ff
ff
00
00
00
00
00
00
00
00
00
00
00
00
00
00
ff
00
01
00
00
00
00
00
ff
00
00
ff
00
00
01
00
00
00
00
00
00
ff
00
ff
ff
00
ff
00
00
00
00
00
00
00
00
ff
ff
00
00
00
00
00
00
00
00
00
00
00
00
00
00
00
00
00
ff
00
00
00
00
ff
00
00
00
00
00
00
00
00
00
00
00
01
00
00
00
00
00
00
00
00
00
00
00
00
00
00
00
00
00
00
00
00
00
00
00
01
01
00
00
00
00
00
00
00
00
00
01
00
00
00
00
01
00
00
00
00
00
00
00
00
00
00
00
00
01
00
00
00
00
00
00
fe
ff
00
00
00
00
00
01
00
ff
ff
00
00
00
00
00
00
00
00
00
00
ff
ff
01
00
00
00
00
00
ff
00
00
00
00
00
00
00
ff
00
00
00
00
00
00
00
01
01
00
00
00
ff
01
01
00
00
00
00
ff
ff
00
ff
ff
00
fe
00
00
ff
00
00
00
00
00
00
00
00
00
00
00
00
00
00
00
00
00
ff
ff
00
ff
00
00
01
00
00
01
00
ff
01
00
00
ff
00
01
ff
00
01
00
00
00
ff
00
00
00
00
00
00
00
00
01
00
00
00
00
00
00
00
00
02
01
00
00
00
00
00
ff
00
00
01
00
00
01
00
00
00
00
00
00
00
00
00
00
00
01
00
00
00
00
00
00
00
00
01
ff
00
00
00
02
02
00
01
00
00
00
00
00
00
00
00
00
00
00
00
00
00
00
ff
00
00
00
ff
00
00
00
00
00
00
00
00
00
00
00
00
01
01
00
00
00
00
00
00
00
00
ff
00
00
00
00
00
00
00
00
00
00
00
00
00
fe
00
00
00
00
00
00
00
01
00
00
00
00
00
00
00
00
00
ff
ff
00
01
01
00
00
00
00
fd
fe
ff
00
ff
00
00
ff
00
00
ff
00
00
00
00
00
00
00
00
00
00
00
00
00
00
00
00
ff
00
00
00
00
00
ff
00
ff
00
00
00
00
00
00
00
ff
00
ff
00
01
00
01
01
00
00
00
00
00
00
ff
fe
00
00
ff
00
fe
fe
00
fd
ff
00
fe
ff
00
00
ff
00
00
00
00
00
00
00
00
00
00
ff
00
00
00
00
00
ff
00
00
00
00
00
ff
00
00
ff
00
00
00
ff
00
01
00
01
00
00
00
00
00
00
00
00
00
02
01
00
02
00
00
00
00
00
ff
00
00
00
00
00
00
00
00
ff
ff
ff
00
00
ff
00
00
00
00
00
00
00
00
00
00
00
00
00
ff
00
00
00
ff
00
00
00
00
00
01
00
00
ff
00
00
00
ff
00
00
00
00
00
02
01
00
03
02
00
00
00
00
00
00
00
00
00
00
00
00
00
00
00
00
fe
00
00
00
00
00
00
ff
00
00
00
00
00
00
00
00
00
00
00
ff
00
00
00
00
00
00
00
00
00
00
ff
ff
00
00
00
00
00
00
00
00
00
00
00
00
00
00
00
ff
fe
ff
00
ff
ff
00
00
01
00
00
00
00
00
00
00
00
00
00
00
00
00
00
00
00
ff
ff
00
00
00
00
00
00
01
00
00
00
00
00
00
ff
00
00
00
ff
01
00
00
00
00
ff
00
00
ff
00
00
00
00
00
00
00
00
ff
00
00
ff
00
00
00
00
fe
ff
00
00
00
00
00
00
00
ff
00
00
ff
00
00
00
00
00
ff
ff
00
00
00
00
00
00
00
00
01
00
00
00
00
ff
ff
00
ff
00
00
00
00
00
00
00
ff
00
00
00
00
00
00
00
ff
00
00
ff
00
00
00
00
00
00
00
00
00
ff
ff
00
00
00
00
00
ff
00
00
fe
ff
00
ff
ff
00
ff
ff
00
00
00
00
00
ff
00
00
00
00
00
00
00
00
00
00
00
00
00
00
00
00
00
ff
00
00
00
00
00
00
00
00
00
01
01
00
00
00
00
00
00
00
00
00
00
00
00
00
00
00
00
00
00
00
00
02
00
ff
00
00
00
00
00
ff
02
01
ff
01
01
00
00
00
00
00
00
00
00
00
00
00
01
01
01
ff
00
01
01
00
00
ff
00
02
00
00
00
00
00
ff
ff
00
00
00
00
ff
00
00
00
00
00
00
00
00
00
00
00
00
00
fe
00
00
ff
00
00
00
00
00
00
00
00
00
00
ff
ff
ff
00
00
00
00
00
00
01
00
00
00
01
00
00
00
00
00
00
00
00
00
ff
ff
00
00
00
00
00
ff
00
00
00
00
00
00
00
ff
ff
00
00
00
00
00
00
00
00
00
00
ff
00
00
00
00
00
00
00
00
01
00
00
00
01
00
00
00
00
00
ff
00
00
fe
00
00
00
00
00
00
00
00
00
00
ff
00
00
00
00
00
00
00
00
00
00
00
ff
00
01
00
ff
00
00
00
00
00
00
00
00
00
01
00
ff
00
01
00
00
00
00
00
fc
fd
00
fe
ff
00
ff
ff
01
01
00
00
00
00
ff
00
ff
00
ff
00
00
00
00
00
00
00
00
00
00
00
01
00
00
00
01
00
01
01
00
01
00
00
01
01
00
02
04
00
01
00
00
01
01
00
ff
00
ff
00
00
00
00
01
00
00
00
00
00
00
00
00
00
00
01
00
00
00
01
00
01
01
00
00
00
00
ff
ff
00
00
01
00
00
00
01
00
00
00
00
00
00
ff
ff
00
ff
00
00
00
00
00
ff
00
01
00
fe
00
00
00
00
00
ff
00
01
00
00
00
01
00
00
01
01
00
00
00
00
00
00
ff
00
00
00
00
00
00
00
00
00
00
00
00
00
00
00
ff
00
ff
00
00
00
01
00
00
00
00
00
00
01
fe
fe
01
ff
ff
00
00
00
00
00
00
00
00
00
00
02
01
00
01
00
00
00
00
00
00
00
00
00
00
00
00
00
00
00
00
00
00
00
00
01
00
00
00
00
00
00
00
00
01
00
00
00
00
ff
01
01
00
00
00
00
00
ff
00
00
00
00
00
00
01
00
00
00
00
00
00
00
00
00
ff
00
00
ff
00
00
00
00
00
ff
00
00
00
00
00
00
00
00
00
00
00
00
00
00
00
00
00
00
ff
00
01
00
00
01
00
01
ff
ff
ff
00
00
00
00
00
00
00
00
00
00
00
00
00
00
00
00
00
00
00
01
00
00
00
01
00
01
00
01
00
00
00
ff
00
00
02
00
00
01
00
00
00
00
00
01
00
00
ff
00
00
00
00
00
00
00
00
00
00
00
00
00
00
00
00
00
00
00
00
00
00
00
fe
00
ff
fe
00
00
00
00
fe
fe
01
ff
ff
00
00
00
00
ff
00
00
00
00
00
00
00
00
ff
00
00
00
00
00
00
00
00
00
ff
00
00
00
00
ff
00
00
00
00
00
ff
ff
00
ff
ff
00
fe
ff
00
ff
00
00
00
00
00
00
00
00
00
00
00
00
00
00
ff
00
00
ff
00
00
ff
00
00
00
00
00
00
00
00
00
ff
00
01
00
00
00
00
00
ff
ff
00
00
00
00
ff
00
00
00
00
00
01
00
00
00
00
00
00
00
00
00
00
01
00
00
00
00
00
00
00
00
00
00
00
00
00
00
00
00
00
00
00
00
00
00
00
00
00
00
00
00
ff
00
00
00
00
ff
00
00
ff
00
00
00
00
00
00
00
00
00
00
00
00
00
00
00
00
00
00
00
00
00
01
ff
00
00
00
00
00
00
01
00
01
02
03
00
ff
00
00
00
00
00
00
00
00
01
01
00
ff
00
00
ff
00
00
00
00
00
01
00
00
ff
00
ff
00
00
00
00
00
00
00
00
00
ff
00
00
00
00
01
00
00
00
00
00
ff
00
00
ff
00
ff
00
00
00
00
00
00
00
01
00
00
01
00
00
01
00
00
01
02
00
ff
00
ff
00
00
00
01
00
00
00
00
00
00
00
00
ff
ff
00
00
00
00
00
00
00
ff
ff
00
00
00
00
00
01
00
01
00
00
01
00
00
00
00
00
00
00
00
00
01
00
00
00
01
00
00
00
00
00
00
01
00
01
00
00
00
ff
00
00
ff
00
00
02
01
01
00
00
01
00
00
00
00
00
00
00
00
00
01
00
00
00
00
00
00
00
00
01
00
00
00
00
01
00
00
00
00
00
00
00
00
00
00
ff
00
00
ff
00
00
00
00
00
00
00
00
ff
00
ff
00
00
00
00
00
00
00
00
00
01
00
00
00
00
00
01
00
00
ff
00
00
00
00
00
00
00
02
00
00
00
00
00
00
01
00
00
00
00
00
00
00
01
00
00
00
00
01
00
00
00
00
00
00
00
00
ff
00
ff
00
00
00
00
00
00
00
00
00
00
00
00
00
00
00
00
00
00
00
00
00
00
00
00
00
00
00
00
00
00
00
00
01
00
00
00
00
00
00
01
ff
00
00
ff
00
00
00
00
00
ff
ff
00
00
01
00
01
01
00
00
00
00
00
00
00
01
00
01
fe
00
00
00
01
00
00
01
00
00
00
00
00
ff
00
00
00
00
00
00
00
ff
00
ff
00
00
00
02
00
00
00
ff
00
01
00
00
00
00
00
00
00
01
ff
00
00
ff
ff
00
00
00
00
ff
ff
00
00
ff
00
00
00
00
00
00
ff
00
00
00
ff
ff
00
00
00
00
01
00
00
02
01
00
02
00
00
00
ff
00
01
00
00
01
00
00
00
00
00
00
01
00
00
00
00
00
01
ff
ff
00
00
00
00
00
ff
ff
00
00
00
01
00
00
00
00
00
00
00
00
00
00
00
ff
00
00
00
00
ff
00
00
00
00
00
00
00
00
00
00
00
00
00
00
02
00
00
00
00
00
00
00
00
00
00
00
00
00
ff
00
ff
ff
00
00
00
01
ff
00
00
00
02
01
00
00
00
00
00
00
00
00
00
00
00
00
00
00
00
00
00
00
01
00
00
01
00
00
00
00
02
00
00
01
00
01
00
00
ff
ff
ff
ff
ff
00
ff
ff
00
00
00
00
00
00
00
00
01
00
00
ff
00
00
00
00
00
00
00
00
00
00
01
00
00
00
01
00
00
00
00
00
00
00
00
00
00
00
01
01
00
00
00
00
00
00
fe
fe
00
ff
fe
00
ff
ff
ff
00
ff
00
01
00
00
00
00
00
00
01
00
00
00
00
00
00
00
01
00
00
00
00
00
00
00
01
00
02
00
00
01
00
00
00
ff
ff
ff
00
00
00
00
00
00
00
00
00
00
00
00
00
00
00
00
00
ff
00
00
00
00
00
00
00
ff
ff
00
00
ff
00
00
00
00
00
ff
00
00
00
00
ff
00
00
ff
01
00
00
00
00
ff
00
00
00
01
00
01
02
00
00
00
00
ff
00
00
00
00
00
00
ff
00
00
01
01
ff
00
00
00
ff
00
01
00
00
00
00
00
00
00
00
00
fe
00
00
00
00
00
00
00
00
00
00
00
00
00
ff
00
ff
00
ff
00
00
00
00
00
01
00
01
00
00
00
01
01
00
00
01
00
01
00
00
00
00
00
00
00
00
00
ff
00
00
00
00
00
00
00
00
00
00
00
00
00
ff
00
00
03
01
00
00
01
00
00
00
ff
fe
00
00
00
00
00
00
00
00
ff
00
00
00
00
00
00
00
00
01
00
01
00
01
00
00
00
00
00
00
00
00
00
01
00
00
02
03
00
ff
ff
00
00
00
00
00
fe
00
00
ff
00
ff
00
00
00
00
01
00
00
01
00
00
00
00
00
00
01
00
00
00
00
00
ff
00
00
00
00
00
00
00
00
00
00
00
00
00
00
ff
01
00
01
01
00
00
ff
ff
00
00
00
ff
ff
ff
00
00
00
ff
00
ff
00
00
00
01
00
00
00
00
00
00
01
00
00
00
00
00
00
00
00
00
00
00
00
00
00
00
00
00
00
ff
ff
ff
00
00
00
00
00
01
00
00
00
00
00
00
00
00
00
00
00
00
00
00
00
00
01
01
00
00
00
00
00
00
00
01
00
00
00
00
00
00
00
00
fe
ff
00
ff
00
00
00
00
00
fe
ff
ff
ff
00
00
00
00
00
00
00
ff
fe
00
ff
ff
00
00
00
00
00
00
ff
00
01
01
00
00
00
00
00
00
00
ff
ff
00
ff
00
00
00
00
00
00
00
00
01
00
00
00
ff
00
00
00
00
00
00
00
00
00
00
00
00
00
00
00
00
00
00
00
00
00
00
01
01
00
00
00
00
00
00
00
00
00
00
01
00
00
00
00
00
00
00
00
01
00
00
01
01
00
ff
00
00
00
ff
00
00
00
00
00
01
00
00
00
00
00
00
00
00
01
00
00
00
00
00
00
00
00
ff
00
00
01
00
00
00
00
00
00
00
00
00
00
00
00
00
00
00
00
00
00
00
00
01
00
00
00
00
00
00
00
00
ff
00
00
01
01
ff
00
01
00
00
01
00
ff
ff
00
00
ff
00
00
00
00
00
00
00
00
00
00
ff
ff
01
00
00
01
00
00
01
01
00
00
ff
00
ff
ff
ff
00
00
00
ff
00
00
00
00
00
ff
00
ff
01
02
00
00
01
ff
02
02
00
00
00
00
00
00
00
00
01
00
00
00
00
00
00
00
00
00
01
00
00
00
01
00
00
01
00
00
00
00
00
00
00
ff
00
00
ff
ff
fe
ff
00
00
00
00
ff
00
00
00
00
00
00
00
ff
fe
00
00
ff
ff
02
00
00
01
00
00
00
00
01
00
ff
01
01
00
00
00
00
00
00
00
ff
ff
00
00
00
02
01
00
00
00
00
00
00
01
00
00
00
ff
00
00
ff
00
00
00
00
00
00
ff
00
ff
00
00
01
01
00
ff
00
ff
00
00
01
00
00
01
00
00
01
00
00
00
00
ff
00
00
00
00
00
ff
00
00
00
00
00
00
00
00
00
00
00
00
00
00
00
01
00
01
01
00
00
00
00
00
00
00
00
00
01
00
00
01
00
00
00
00
00
00
00
00
00
00
00
00
00
00
00
00
ff
00
00
00
00
00
fe
ff
ff
00
00
00
00
00
00
00
00
00
00
01
00
00
00
00
00
01
ff
01
01
00
00
00
00
00
ff
00
00
00
00
00
ff
00
00
00
00
00
00
01
00
00
00
00
00
00
01
00
00
00
00
00
fe
fd
ff
ff
ff
00
ff
00
00
00
01
00
00
00
00
00
fe
ff
00
00
00
00
01
00
00
00
00
00
00
00
00
00
00
00
00
00
01
00
00
00
00
00
00
00
00
00
00
00
00
00
00
00
ff
ff
ff
ff
fe
ff
00
fe
00
00
00
00
00
00
00
00
00
00
00
00
00
01
00
00
00
00
00
00
00
02
01
00
00
00
00
00
00
00
01
00
01
00
ff
00
00
00
00
ff
00
00
00
00
00
00
00
00
00
00
00
00
00
00
00
00
00
00
01
00
00
01
00
00
01
00
ff
00
00
00
00
01
01
00
00
00
01
00
00
00
00
01
00
00
fd
fd
fe
00
ff
fd
00
00
00
ff
00
00
ff
00
00
00
00
00
00
00
00
00
ff
ff
00
00
00
00
00
01
00
ff
00
00
00
00
01
00
ff
00
ff
00
00
00
00
ff
01
01
00
ff
00
00
ff
00
00
00
00
00
00
00
00
ff
00
00
00
00
00
00
00
00
00
00
00
00
00
ff
00
01
ff
00
00
ff
00
00
00
ff
00
00
00
00
01
00
ff
00
00
00
00
ff
00
00
00
00
00
01
00
01
00
00
00
01
01
00
ff
00
00
00
00
ff
00
01
00
01
00
00
00
00
00
ff
00
00
00
00
01
01
00
00
01
00
00
00
ff
00
00
00
fe
fe
ff
00
00
00
00
00
00
00
00
01
00
00
01
00
00
01
00
00
00
00
00
00
00
00
00
ff
00
00
00
ff
00
00
00
00
00
00
00
ff
00
00
00
00
00
00
00
ff
00
00
00
00
00
00
00
00
00
00
00
ff
00
00
00
00
00
fe
00
01
ff
01
00
00
00
ff
ff
ff
00
00
00
ff
00
01
00
01
00
fe
00
00
00
00
00
00
00
00
00
00
00
00
00
00
00
fe
fe
00
ff
00
00
00
00
00
00
00
00
00
00
ff
00
00
00
00
00
00
00
01
01
00
03
01
00
00
00
00
00
01
00
00
00
ff
00
ff
00
ff
00
00
00
00
00
ff
00
01
00
00
01
00
03
01
00
00
01
00
00
00
01
00
00
00
00
00
00
00
00
00
01
00
ff
ff
00
ff
ff
00
00
ff
00
00
00
00
01
01
ff
00
01
00
00
ff
00
00
00
00
00
00
00
00
fe
00
00
00
00
00
01
00
00
00
00
00
00
00
00
01
00
ff
00
00
00
00
00
00
00
01
ff
00
01
00
00
00
02
00
00
01
00
00
01
00
01
00
00
00
00
00
00
00
00
00
00
00
01
00
00
00
01
00
00
00
01
00
00
00
00
00
00
00
ff
ff
00
00
ff
00
00
00
00
00
01
00
00
00
00
00
00
00
00
00
00
00
00
00
00
00
00
00
00
00
00
00
00
00
00
00
00
ff
00
00
ff
00
ff
00
ff
00
00
00
ff
ff
00
00
ff
00
00
02
01
00
00
00
00
00
00
00
fe
00
00
00
00
01
00
00
00
ff
00
00
00
00
00
00
00
00
01
00
00
00
00
00
01
00
00
00
00
00
00
00
00
ff
00
00
00
ff
00
00
00
00
ff
00
00
00
00
ff
00
00
00
00
00
00
01
00
00
01
01
00
01
00
00
00
00
00
00
00
02
01
00
00
00
00
00
00
00
00
00
00
ff
00
00
00
00
00
01
00
00
00
00
00
00
00
00
00
00
00
00
ff
00
00
ff
00
01
00
00
00
00
00
00
00
00
00
00
00
00
ff
01
00
ff
00
00
00
00
ff
fe
00
00
ff
01
00
00
00
00
00
00
ff
00
ff
01
00
00
ff
00
00
00
fe
00
ff
00
00
00
00
00
01
00
00
01
00
00
00
00
00
00
00
ff
00
00
00
00
00
ff
00
00
00
00
00
00
ff
fe
00
00
00
00
00
00
00
00
00
00
00
00
00
00
01
00
00
01
00
00
00
01
00
00
00
00
00
00
00
00
00
00
00
00
00
00
00
00
00
00
00
00
00
ff
00
00
00
00
00
00
00
00
00
00
ff
00
ff
00
01
00
00
00
01
00
ff
00
ff
00
00
ff
ff
00
00
ff
ff
00
ff
00
00
ff
00
00
00
00
02
00
00
01
00
01
01
00
00
00
00
00
00
fd
fe
ff
ff
00
ff
00
00
fe
01
00
00
00
00
ff
00
00
ff
00
00
00
00
00
00
00
00
ff
00
00
00
ff
00
ff
00
00
ff
00
00
ff
00
00
00
00
ff
ff
00
00
00
00
00
00
00
00
00
00
00
00
00
00
00
00
00
00
00
ff
00
01
00
00
01
00
00
00
00
00
00
00
00
00
00
01
00
00
00
00
00
00
00
00
00
00
00
ff
fe
ff
00
00
00
00
01
02
01
00
00
01
00
00
00
00
00
00
00
00
00
00
00
00
00
00
00
00
00
01
00
00
00
00
00
00
00
00
00
00
00
00
00
00
00
01
00
00
00
00
00
00
ff
00
00
00
01
00
01
01
00
00
01
01
00
01
00
00
01
00
00
00
ff
00
00
00
00
ff
00
00
00
00
00
00
00
00
00
00
01
01
ff
00
00
ff
01
00
00
00
00
00
00
00
00
00
00
00
00
01
00
00
02
ff
00
01
01
00
00
00
00
00
00
00
00
01
02
01
00
00
02
00
00
00
00
00
01
01
00
00
01
00
00
00
01
01
00
01
01
00
00
00
ff
00
00
00
00
00
00
ff
00
00
00
00
00
00
ff
00
00
00
01
00
00
00
ff
00
00
00
00
00
00
00
00
00
00
00
00
ff
02
02
00
00
00
00
00
00
00
00
02
00
00
00
00
00
01
00
00
00
00
00
ff
00
00
00
00
01
01
00
00
00
ff
00
00
00
00
00
00
00
00
00
ff
00
ff
00
ff
ff
01
01
00
00
00
00
00
ff
00
00
00
00
fe
00
ff
00
01
00
00
00
00
00
00
ff
ff
ff
00
00
00
00
ff
00
00
00
00
00
00
00
00
00
00
00
00
00
00
ff
00
00
00
00
00
00
00
00
fe
00
00
ff
00
00
01
00
ff
00
00
01
00
ff
00
00
ff
01
00
00
00
00
00
00
00
01
01
00
ff
00
00
ff
ff
01
00
00
01
00
01
01
00
00
00
01
01
00
00
00
ff
ff
00
00
00
00
ff
00
00
00
00
00
ff
00
fd
00
00
00
00
00
00
ff
ff
00
00
00
ff
00
00
00
00
ff
00
00
ff
00
00
00
00
00
ff
01
00
00
01
00
00
01
00
ff
00
01
ff
00
01
00
00
00
00
00
00
00
00
00
00
00
00
01
01
01
00
00
00
00
00
00
00
00
00
00
00
00
00
00
00
00
00
01
00
01
00
00
01
00
00
00
00
00
00
00
00
00
00
ff
00
00
00
00
00
00
00
00
01
00
00
00
00
00
00
ff
00
00
00
00
00
00
00
00
01
ff
00
00
ff
00
01
ff
00
02
00
00
00
00
01
00
00
ff
00
00
00
ff
01
00
00
00
00
00
00
00
00
00
00
00
00
00
00
01
00
00
00
ff
00
00
ff
00
00
00
00
00
00
00
00
00
00
00
00
00
00
00
00
ff
00
00
00
00
00
00
00
00
00
00
00
00
00
00
00
01
00
00
00
00
00
ff
00
00
ff
00
01
ff
00
00
01
00
00
01
01
00
00
00
00
00
00
00
00
00
00
00
00
01
00
00
00
ff
00
00
00
00
01
00
00
00
00
00
00
00
00
00
00
00
00
ff
00
00
ff
00
00
ff
00
00
00
00
01
00
00
00
00
00
00
00
ff
00
00
00
02
01
02
01
00
00
01
00
01
00
00
00
00
00
00
00
00
00
00
00
00
00
00
00
00
00
00
00
00
00
ff
00
00
00
00
00
00
00
00
00
ff
00
00
00
00
00
00
00
00
00
00
00
00
00
00
00
00
00
00
00
00
00
00
00
00
00
00
00
00
00
00
00
00
00
00
01
01
00
00
00
00
00
00
00
00
00
00
00
00
00
00
00
00
00
00
00
00
00
00
00
ff
00
00
fe
00
00
00
00
00
00
ff
00
00
00
ff
00
00
00
00
00
ff
00
00
00
00
00
00
00
00
00
00
00
00
00
00
00
00
00
00
00
00
00
00
00
00
00
00
00
00
00
00
00
00
00
00
ff
00
00
00
00
00
00
ff
00
00
00
00
01
ff
00
00
00
00
00
00
00
00
00
00
00
00
00
00
00
00
00
00
00
00
01
00
00
01
00
00
00
00
00
00
00
00
00
00
00
00
00
00
00
00
00
00
ff
00
ff
00
00
00
01
00
00
00
00
00
00
00
00
00
00
00
00
00
00
00
00
00
00
00
00
00
00
00
00
00
02
00
00
00
00
00
00
00
00
00
00
00
00
00
00
00
00
00
00
00
00
00
00
00
00
00
00
02
00
00
00
00
00
00
00
00
00
ff
00
01
ff
00
00
00
00
00
00
00
00
00
00
00
00
00
00
00
01
00
00
00
00
00
00
00
00
01
01
01
00
00
01
00
01
00
00
01
00
00
00
00
00
00
00
00
00
00
00
00
00
00
00
00
00
00
00
00
01
00
00
00
00
00
00
00
00
00
00
00
ff
00
00
00
00
00
00
00
00
00
00
00
00
ff
ff
00
00
00
00
00
00
00
00
00
00
00
00
01
01
00
00
01
00
00
00
00
00
00
00
00
00
00
00
00
00
01
00
00
00
01
00
00
00
00
02
00
01
01
01
00
00
00
00
01
00
00
00
00
00
00
00
00
00
00
00
00
00
00
00
00
00
00
00
00
00
00
00
00
00
00
fe
ff
00
ff
00
00
00
00
00
00
00
ff
00
00
00
00
00
00
00
00
00
00
00
00
00
00
00
00
ff
00
00
00
00
00
00
00
00
00
00
00
01
00
00
00
00
00
00
00
00
00
00
01
00
ff
00
01
00
00
04
00
01
01
00
01
00
00
00
00
00
01
00
00
00
00
01
00
00
ff
00
00
00
ff
00
00
00
00
00
00
00
00
00
00
00
01
01
00
00
01
00
00
ff
00
00
ff
00
00
01
00
00
00
00
01
00
01
00
00
00
00
00
00
00
00
00
00
00
00
00
ff
00
00
00
00
00
00
00
00
00
00
00
00
00
00
00
00
00
00
00
00
00
00
00
00
00
00
00
00
00
00
00
00
00
00
00
00
ff
00
00
00
00
00
00
00
00
00
00
01
00
00
00
00
00
ff
ff
ff
00
00
ff
ff
00
00
01
00
00
00
00
00
00
00
00
00
00
00
00
00
00
00
00
00
00
ff
00
00
00
00
00
00
00
01
00
00
00
00
01
00
00
00
00
00
00
00
00
00
00
00
00
00
00
00
00
00
00
00
00
00
00
00
00
01
00
00
00
00
ff
00
00
00
00
01
00
00
00
ff
00
00
00
00
00
00
00
00
00
01
00
00
00
00
00
00
00
00
ff
00
00
ff
00
00
00
00
ff
00
00
00
00
00
00
00
00
00
01
01
00
00
01
00
00
00
ff
00
00
fe
00
00
ff
00
00
00
00
00
ff
00
00
00
00
01
00
00
00
ff
00
00
00
00
00
03
01
00
01
00
00
01
01
00
01
00
00
01
00
00
00
00
00
00
00
00
00
00
00
00
00
00
00
00
00
00
00
00
00
00
00
01
00
00
01
00
00
01
01
00
00
00
00
00
00
01
00
00
01
00
00
00
00
00
00
00
ff
00
01
00
ff
00
00
00
00
01
00
00
00
00
00
00
00
00
ff
ff
00
00
00
00
00
00
00
00
00
00
01
00
00
00
00
00
01
00
00
ff
00
00
00
00
00
00
00
00
ff
00
00
00
00
00
ff
01
00
00
00
00
01
00
00
00
00
00
00
00
00
00
00
00
00
00
00
fe
00
00
00
00
00
00
00
00
00
00
00
00
00
00
00
ff
01
00
00
00
00
00
00
00
00
00
00
00
00
00
00
00
00
00
00
ff
00
00
00
00
01
00
00
00
00
ff
00
00
00
00
00
00
00
00
00
00
00
00
00
00
01
00
00
00
00
ff
00
00
00
00
00
01
00
00
00
00
00
01
00
00
ff
00
00
00
00
00
00
00
00
ff
00
00
00
00
01
00
00
00
00
00
00
00
00
00
00
00
00
00
00
01
00
00
00
00
00
00
00
00
00
00
00
00
00
00
00
00
00
00
ff
00
00
00
00
ff
ff
00
00
01
00
00
00
00
00
ff
00
00
00
00
00
00
00
01
02
01
00
00
00
00
00
00
00
00
00
00
00
00
00
00
00
01
01
00
00
00
00
00
00
00
00
00
00
01
01
00
00
00
00
01
01
00
00
00
00
01
00
00
ff
00
00
00
00
ff
00
00
00
00
00
00
00
00
00
00
00
00
00
00
00
00
00
00
00
01
00
00
00
00
00
ff
00
00
00
00
00
00
00
00
00
00
00
00
00
00
00
00
00
00
00
00
01
01
00
00
00
00
ff
00
00
00
00
01
01
00
00
00
00
00
00
00
ff
ff
00
00
ff
00
00
00
00
00
00
01
00
00
00
ff
ff
00
01
00
00
01
00
00
01
00
00
02
00
00
01
00
00
01
00
00
00
00
00
01
00
00
00
00
00
00
00
00
00
00
00
01
00
00
00
01
01
00
00
00
00
00
00
00
00
00
00
00
00
00
ff
ff
00
ff
00
00
00
00
00
00
00
01
02
00
01
00
00
00
00
00
00
00
00
00
ff
00
00
ff
00
01
01
00
00
00
00
00
00
00
00
00
01
00
00
01
00
00
00
00
00
00
00
00
00
00
00
00
00
ff
00
00
00
00
00
00
00
00
00
00
00
ff
00
00
00
01
00
00
00
00
00
00
00
00
00
00
00
00
00
00
00
00
00
00
00
00
00
00
00
00
00
00
00
00
ff
00
00
ff
00
01
00
00
00
00
00
00
00
00
00
00
00
00
00
00
00
00
00
00
00
00
00
02
00
00
01
00
ff
00
00
00
00
00
00
00
00
00
00
00
00
00
00
00
00
00
00
01
00
01
ff
00
00
fe
00
00
00
00
00
00
ff
01
01
00
01
00
ff
00
00
00
00
00
00
00
00
00
ff
00
00
00
00
00
00
00
00
00
00
01
00
00
00
00
00
00
01
01
00
01
00
00
00
00
00
01
00
00
00
00
00
00
00
00
00
00
01
00
00
00
00
00
00
00
00
00
00
ff
01
00
00
00
01
00
00
00
00
ff
00
00
00
00
00
01
ff
fe
00
00
00
01
00
00
00
00
00
00
00
00
00
01
00
ff
00
00
00
00
00
00
ff
00
00
00
01
00
00
00
00
00
00
00
00
01
00
ff
00
00
00
00
00
00
00
00
00
00
00
ff
ff
00
00
00
00
00
00
00
00
00
00
00
00
00
00
00
00
00
00
00
00
00
00
00
00
00
00
00
00
00
01
00
00
00
00
00
00
00
00
00
00
00
00
00
02
00
00
00
00
00
00
00
00
00
00
00
00
00
00
00
00
00
00
00
00
00
00
00
00
00
00
00
ff
00
00
00
00
00
00
00
01
00
00
00
00
00
01
00
00
00
00
00
00
00
00
00
00
00
00
00
00
ff
00
00
00
00
ff
00
00
00
00
00
00
00
00
ff
01
00
00
00
00
00
00
00
00
00
00
01
01
00
01
01
00
00
00
00
00
00
00
00
00
00
00
00
00
00
00
00
00
00
00
00
01
00
00
01
ff
00
01
00
00
01
00
00
00
00
ff
00
00
00
00
00
00
00
00
00
00
00
00
00
00
00
00
ff
00
01
00
00
00
00
ff
00
00
00
00
00
00
00
00
00
00
ff
00
00
00
ff
00
00
00
00
01
00
00
00
00
00
00
00
00
00
01
00
00
00
01
00
00
00
ff
00
00
00
00
ff
00
00
ff
00
00
00
00
00
00
00
00
00
00
ff
00
01
00
01
00
00
00
00
00
00
00
00
00
00
00
ff
00
00
00
00
00
00
ff
00
01
ff
00
00
00
00
00
00
00
00
00
00
00
00
00
00
00
00
00
00
00
00
00
00
00
00
00
00
00
00
00
01
00
01
00
00
01
00
00
00
00
00
00
00
00
00
00
00
00
00
00
ff
00
00
00
00
00
00
01
00
00
ff
00
00
ff
ff
00
00
00
ff
00
00
00
00
00
00
00
00
00
00
00
00
00
00
00
00
00
02
00
00
01
00
00
00
00
00
00
00
00
00
02
00
00
00
00
00
00
00
01
ff
00
00
00
00
01
00
00
00
01
00
00
00
00
00
00
00
01
00
00
00
00
00
00
00
00
00
ff
00
00
00
00
00
01
00
00
00
00
00
00
00
00
00
00
00
00
00
00
00
00
ff
00
00
00
00
00
00
ff
00
00
01
00
00
00
00
00
00
00
00
ff
00
00
00
00
00
00
00
00
00
00
00
00
00
00
00
00
00
00
01
00
00
01
00
01
00
01
00
01
00
ff
00
00
00
01
00
00
00
00
01
00
00
00
00
00
00
00
01
ff
00
00
00
00
01
00
00
00
00
ff
00
00
00
00
00
00
00
ff
00
00
00
00
00
00
00
00
00
00
00
00
ff
00
00
00
ff
00
00
00
00
00
00
00
00
00
00
00
00
00
00
00
00
01
00
00
00
00
00
00
01
00
00
00
00
00
00
00
00
00
00
00
00
00
00
00
ff
00
00
00
00
00
00
00
01
00
00
02
00
00
01
00
00
00
00
00
00
00
ff
00
fe
ff
00
00
ff
ff
ff
ff
00
00
00
00
00
00
01
00
00
01
ff
00
00
00
00
00
00
00
00
00
00
00
ff
00
00
00
00
00
00
00
00
00
00
01
00
00
ff
ff
00
00
00
00
01
00
00
00
00
00
00
00
00
00
00
00
ff
00
00
00
00
00
00
00
00
00
00
00
00
00
00
00
00
00
00
00
00
00
00
00
00
00
00
01
01
00
00
01
00
00
01
00
00
00
00
00
00
00
00
00
01
ff
00
00
00
00
00
00
00
01
00
00
00
00
00
00
00
00
ff
00
00
00
00
00
00
00
00
00
ff
00
01
00
01
00
00
00
00
ff
00
00
00
ff
00
ff
ff
00
00
00
01
00
00
00
00
00
ff
fe
ff
00
fe
ff
00
00
00
00
00
00
00
00
00
00
00
00
00
01
00
00
00
00
00
00
00
00
00
00
00
00
00
00
00
00
00
ff
00
00
00
00
00
01
01
ff
00
00
00
00
01
00
00
00
00
00
00
00
00
00
00
00
01
00
00
00
00
00
00
00
00
01
00
00
01
00
00
00
00
01
01
00
ff
02
00
00
00
00
00
00
00
00
00
00
01
00
00
00
00
00
02
02
01
00
00
01
01
00
ff
00
01
00
00
00
01
00
00
00
ff
ff
00
00
00
00
01
01
00
02
01
00
ff
00
ff
00
00
00
00
00
00
00
00
00
00
00
00
00
01
00
00
00
00
01
01
00
00
00
00
00
00
00
00
01
00
01
00
00
00
ff
00
00
ff
00
00
00
00
ff
ff
00
00
00
00
00
00
00
00
00
00
01
00
00
00
01
02
00
00
00
00
00
00
00
00
00
00
00
00
fe
fe
00
ff
00
00
ff
00
00
01
00
ff
00
00
00
ff
00
00
00
00
00
00
ff
00
00
00
00
00
00
01
00
00
00
00
00
00
00
00
00
00
00
01
01
01
01
00
00
00
00
00
00
00
00
ff
00
00
00
00
00
00
00
00
00
00
00
00
00
00
00
01
01
00
00
00
00
00
00
00
01
00
00
00
01
00
00
00
00
00
00
00
ff
00
00
00
ff
00
00
00
ff
00
00
00
00
00
00
00
00
00
00
00
00
01
00
00
00
00
00
00
00
00
01
00
00
00
00
00
00
00
00
00
00
00
00
00
00
01
00
00
00
00
00
00
00
00
00
00
ff
01
ff
00
00
00
00
ff
00
00
01
01
ff
ff
00
00
00
00
00
00
ff
00
00
00
01
00
00
00
ff
ff
00
00
00
00
ff
00
01
ff
ff
00
01
00
00
00
00
00
00
ff
00
00
fe
00
01
00
00
00
ff
ff
00
00
00
00
00
01
fe
fe
00
ff
ff
00
00
00
00
00
00
00
01
00
00
00
00
ff
ff
ff
00
00
ff
00
fe
ff
00
ff
00
00
ff
fe
00
00
00
00
02
02
00
00
00
00
00
00
00
01
00
01
00
00
00
00
ff
00
00
ff
01
01
00
00
00
00
01
00
00
00
01
00
00
00
ff
00
01
ff
00
01
02
01
00
00
00
00
00
00
00
01
01
00
00
00
00
00
01
ff
ff
00
00
ff
00
00
00
00
00
00
00
00
00
01
00
00
00
00
00
00
01
00
00
00
00
00
ff
00
01
ff
00
01
00
00
00
00
00
00
ff
00
00
00
00
00
01
01
00
00
ff
00
01
01
00
00
00
00
ff
00
00
02
01
00
00
00
00
00
ff
00
00
00
01
00
00
00
00
01
00
00
00
00
01
00
00
00
01
00
ff
01
00
00
01
00
ff
ff
00
00
00
00
01
01
00
00
00
00
01
02
00
01
01
00
00
00
ff
00
00
00
00
01
00
00
ff
00
00
ff
00
00
00
00
ff
00
00
ff
00
00
00
00
00
00
00
00
00
ff
00
00
00
00
00
00
00
01
01
01
00
01
01
00
00
00
00
00
00
00
00
00
00
00
00
00
00
01
00
00
00
00
00
00
00
00
00
01
00
00
00
00
01
00
fe
00
01
ff
00
01
01
00
01
03
00
00
00
00
00
01
00
00
00
00
ff
00
ff
00
00
01
00
00
00
01
00
01
00
00
00
00
00
00
00
00
00
00
00
00
00
00
00
00
00
00
00
01
00
01
02
00
00
ff
ff
00
00
00
00
00
00
00
00
00
00
00
00
ff
00
00
00
ff
00
ff
00
ff
00
00
00
00
00
00
00
00
00
00
ff
00
00
00
00
00
00
00
01
00
00
00
01
00
00
00
01
00
00
00
00
00
00
00
00
00
ff
ff
01
00
00
00
00
00
00
ff
ff
00
00
00
01
00
00
00
00
00
00
00
00
00
00
00
00
00
00
00
00
00
00
00
00
00
00
fe
00
00
01
00
00
ff
ff
00
00
ff
00
01
00
00
00
00
00
00
00
00
00
00
00
00
00
00
00
02
00
00
00
01
00
00
01
00
00
00
00
00
ff
ff
00
00
00
01
00
00
00
00
00
00
01
01
00
ff
00
00
00
00
00
01
01
ff
ff
ff
00
00
01
00
ff
01
00
00
02
01
00
00
00
00
00
00
00
00
ff
01
00
00
00
00
00
00
01
00
01
00
00
01
00
ff
ff
ff
00
00
00
00
00
ff
00
00
00
00
00
ff
00
00
00
00
00
00
00
01
00
00
01
00
ff
00
00
01
00
00
00
ff
00
00
00
00
00
00
00
00
00
00
00
00
00
01
ff
00
00
00
ff
00
01
00
00
01
00
00
00
00
00
00
00
00
00
00
00
00
ff
00
00
00
00
00
00
00
ff
ff
00
00
00
00
00
00
00
ff
00
00
00
00
00
00
00
01
00
00
00
00
00
00
00
ff
00
00
00
01
00
00
00
00
00
00
ff
00
00
00
00
00
00
00
00
00
00
00
01
00
01
00
00
00
00
00
01
00
00
00
ff
ff
00
00
00
00
00
00
00
00
00
00
ff
ff
00
00
00
00
ff
00
ff
ff
00
00
00
00
00
ff
ff
00
00
00
00
fe
00
00
00
00
01
00
02
00
00
00
00
00
ff
00
00
00
00
ff
00
00
00
00
00
00
00
00
00
00
00
00
ff
00
00
ff
00
00
00
00
02
01
01
02
01
00
00
02
01
00
00
01
ff
fe
00
00
00
00
00
00
ff
01
01
00
ff
fe
00
fd
fd
00
ff
fd
ff
00
ff
00
00
ff
00
00
00
00
ff
ff
01
ff
00
00
00
00
ff
00
00
00
00
00
00
00
00
00
01
01
00
01
00
00
00
00
00
00
00
00
00
00
00
00
ff
00
00
00
00
00
01
00
00
00
00
00
ff
00
00
00
00
00
00
00
00
00
00
02
02
ff
00
00
ff
ff
00
00
00
00
00
00
00
00
00
01
00
01
01
00
00
00
00
00
00
00
01
ff
ff
00
00
00
00
00
00
00
00
01
00
ff
00
00
00
00
00
00
00
00
00
00
00
01
00
00
ff
00
00
01
00
00
ff
00
00
00
00
00
ff
00
01
01
01
00
ff
00
00
ff
00
00
00
00
00
00
00
00
00
00
00
00
00
00
00
00
00
00
00
00
00
00
00
00
00
00
00
00
ff
00
00
00
00
00
ff
ff
00
fe
ff
00
01
01
00
00
00
00
01
01
01
00
00
00
02
01
00
00
00
00
00
00
00
00
00
ff
00
00
00
01
00
00
00
00
00
00
00
00
03
01
ff
01
00
ff
00
00
00
00
00
01
00
00
00
01
00
00
00
00
00
00
00
00
00
00
00
ff
00
00
00
00
00
ff
ff
00
00
00
01
01
00
00
00
00
00
ff
00
00
00
01
00
00
00
ff
00
00
00
00
00
ff
ff
00
ff
00
00
00
00
00
00
00
00
00
00
00
00
00
00
00
ff
00
00
01
00
00
01
01
00
fe
ff
00
ff
ff
00
00
00
00
00
00
00
00
00
00
ff
ff
00
00
00
00
00
00
00
00
ff
ff
01
00
00
ff
ff
00
fe
fe
00
00
ff
00
00
00
00
00
00
00
00
00
00
00
ff
00
00
00
01
01
01
00
00
01
fe
00
00
ff
00
00
00
00
00
00
01
00
00
00
00
00
01
00
00
00
ff
00
00
00
00
00
00
00
00
00
ff
01
00
00
00
00
00
00
00
ff
00
00
00
00
00
00
00
00
00
00
00
00
00
00
00
01
00
00
00
01
00
ff
ff
ff
01
00
00
ff
fe
00
00
ff
00
02
01
00
ff
00
00
00
01
00
00
00
00
00
00
00
00
00
00
00
00
00
00
00
00
00
00
00
00
00
00
00
00
00
00
00
ff
00
01
00
fe
00
00
ff
fe
00
ff
ff
00
ff
ff
00
ff
00
00
ff
ff
00
01
00
00
00
00
ff
00
00
00
00
00
00
ff
ff
00
00
00
00
00
00
00
00
01
00
00
00
01
00
00
00
00
ff
00
00
00
00
00
00
00
00
00
00
01
00
00
00
00
00
00
00
00
00
01
00
00
00
ff
00
00
ff
ff
00
ff
00
00
00
00
00
00
01
00
00
00
00
00
00
00
00
01
00
00
01
00
00
00
00
00
00
00
00
00
00
01
00
00
00
00
00
00
00
00
00
00
ff
00
00
00
00
00
00
00
00
00
00
00
00
00
01
00
ff
00
00
00
ff
00
00
00
00
01
ff
00
00
01
00
00
01
00
01
00
00
00
00
00
00
00
01
00
00
00
00
fe
00
00
00
00
00
00
00
01
00
00
01
00
ff
00
00
00
00
00
00
00
00
00
00
00
00
00
ff
ff
00
00
ff
00
00
00
00
ff
00
00
00
00
00
00
00
00
02
01
00
00
00
00
01
00
00
00
00
00
00
00
00
ff
ff
00
ff
fe
00
00
ff
00
00
00
00
00
ff
00
ff
00
00
00
00
01
ff
00
00
00
00
00
00
00
00
00
00
00
ff
00
00
00
00
01
01
01
00
fe
00
00
00
00
00
ff
00
00
00
00
00
00
00
00
00
00
00
01
00
00
00
00
00
00
ff
00
00
00
00
00
00
00
00
00
00
00
00
00
00
01
00
00
00
01
00
00
00
00
00
00
00
00
00
00
00
00
00
01
00
ff
00
00
00
ff
00
00
00
00
00
00
00
00
00
00
00
ff
00
00
00
00
00
00
00
00
00
00
00
00
00
00
fe
00
00
00
00
00
ff
00
ff
ff
00
ff
00
02
00
00
00
00
00
00
00
00
00
00
00
00
00
00
00
00
00
01
00
fe
00
ff
00
ff
00
02
00
00
00
00
00
ff
00
01
00
00
00
00
00
00
00
00
00
00
00
00
00
01
00
00
00
00
00
00
00
00
00
01
01
00
00
00
00
00
00
00
00
01
01
00
00
00
ff
ff
ff
00
00
00
ff
ff
00
fe
ff
00
00
01
00
00
00
00
00
00
00
00
00
00
00
01
01
01
02
00
00
00
00
00
00
00
01
00
00
00
00
00
ff
ff
00
ff
00
00
00
00
ff
00
00
00
00
ff
00
00
ff
00
01
01
00
01
00
00
00
00
00
00
00
00
00
00
00
00
00
00
00
01
00
00
00
00
00
00
00
00
00
00
02
03
00
00
ff
ff
01
00
00
00
00
00
00
00
01
ff
00
00
00
00
00
00
01
00
00
00
ff
00
00
00
ff
ff
00
00
00
00
00
00
00
00
00
00
ff
00
00
00
01
00
ff
00
00
00
00
00
00
00
00
ff
ff
00
01
00
00
00
00
00
00
00
ff
00
00
01
00
00
00
00
00
00
00
00
00
00
01
00
00
00
00
ff
ff
00
00
00
00
00
00
00
ff
00
00
ff
00
00
00
00
00
00
00
00
00
00
00
00
00
00
fe
ff
00
ff
fe
00
00
00
00
ff
ff
00
00
02
00
00
00
00
00
00
00
00
01
00
00
00
00
00
00
01
00
01
01
00
01
00
01
01
00
00
00
00
00
00
00
00
00
00
00
00
00
00
00
00
00
00
01
00
ff
00
00
00
00
00
00
00
00
00
00
00
00
00
00
00
00
00
00
00
00
ff
00
00
fe
00
00
00
00
ff
00
00
ff
00
ff
00
00
00
00
00
00
00
00
00
00
ff
00
00
00
00
00
01
01
00
00
00
ff
00
00
00
00
00
00
00
00
00
00
00
00
00
00
00
00
00
01
00
00
00
00
00
00
00
00
00
ff
00
00
00
00
00
01
00
00
00
00
00
00
00
00
01
01
00
00
00
00
00
00
01
00
00
00
00
00
00
00
00
00
01
00
00
00
00
00
00
00
01
00
00
00
ff
00
ff
00
00
00
ff
00
00
ff
00
ff
00
00
00
00
00
00
00
00
00
00
00
00
00
00
00
00
00
00
ff
ff
00
00
00
00
00
00
00
ff
00
00
00
00
00
01
00
01
01
00
01
00
00
00
00
00
01
00
00
00
00
00
01
01
00
ff
fe
00
00
00
00
00
ff
00
00
00
00
00
00
00
00
01
00
02
00
01
00
00
01
01
00
00
ff
ff
00
ff
ff
00
00
00
00
00
00
00
ff
ff
ff
00
00
00
00
00
00
00
00
00
00
00
00
00
ff
00
00
ff
00
00
01
00
00
00
00
ff
ff
00
00
00
00
00
00
00
00
00
00
ff
00
00
00
00
00
00
00
00
00
00
00
01
00
00
00
00
00
00
00
00
00
00
00
00
00
00
00
00
00
00
00
fe
00
00
00
00
00
00
00
00
00
ff
ff
00
00
00
01
00
00
ff
ff
00
00
00
00
00
ff
00
00
00
00
00
00
01
00
00
00
00
00
00
00
00
ff
ff
ff
00
00
00
00
00
ff
ff
00
00
00
00
01
00
00
00
01
00
00
00
00
00
ff
00
01
ff
00
00
ff
00
00
00
00
00
00
00
00
00
00
00
00
00
01
00
00
00
ff
ff
01
00
00
00
00
00
00
fe
ff
01
00
00
00
00
00
fe
fe
00
00
00
00
00
01
00
00
00
00
00
00
00
00
01
00
00
00
00
00
00
00
00
00
00
00
00
00
00
00
ff
ff
00
00
01
00
00
00
00
00
00
00
00
00
00
00
00
ff
00
00
ff
00
00
ff
ff
00
00
00
00
00
00
00
00
00
00
00
00
00
00
00
00
00
00
00
01
01
00
00
00
00
ff
00
01
00
00
01
00
00
00
00
00
00
00
00
00
01
00
01
02
00
00
00
00
00
00
00
00
00
00
00
02
00
00
01
00
00
00
00
00
00
00
00
00
00
00
ff
00
00
03
00
00
01
00
00
00
00
00
00
00
00
00
00
00
00
00
00
00
00
00
00
00
00
00
00
00
00
00
00
00
00
00
00
00
00
ff
00
00
00
01
ff
00
00
00
01
01
00
00
00
00
00
00
00
00
00
00
00
00
fe
fe
00
ff
fe
00
ff
ff
ff
00
00
00
00
00
00
00
00
00
00
00
00
00
fe
00
00
00
00
00
00
00
01
00
00
00
00
00
00
00
00
00
00
00
00
00
00
00
00
00
00
00
00
00
00
00
00
00
00
00
ff
00
00
00
00
fe
ff
00
ff
00
00
fe
00
00
00
00
ff
01
ff
00
00
fe
00
00
00
00
01
00
00
00
00
00
00
00
ff
02
01
00
00
00
00
00
01
00
02
01
00
00
01
00
00
00
00
00
00
00
00
01
00
00
00
00
00
02
00
00
01
00
01
00
00
00
00
00
00
01
00
00
00
00
ff
00
00
00
00
00
01
00
00
00
00
00
01
00
00
00
00
00
01
00
00
01
00
00
00
00
ff
00
00
ff
00
00
00
00
fe
00
00
00
00
00
ff
00
ff
00
00
ff
ff
00
00
00
00
01
00
00
00
00
00
00
00
00
00
00
00
00
ff
ff
00
00
00
00
00
00
00
01
01
01
02
00
00
00
00
00
02
00
ff
00
00
00
01
00
00
00
00
00
01
01
00
00
00
01
01
00
00
00
00
00
00
00
00
00
00
00
00
00
ff
00
00
00
02
00
00
00
00
01
00
00
00
ff
ff
ff
00
00
00
ff
ff
00
00
00
00
00
00
ff
00
ff
ff
00
00
00
00
00
00
00
00
00
ff
00
00
00
00
fe
ff
00
02
00
01
00
00
00
00
ff
00
00
00
00
00
ff
00
00
00
ff
01
01
00
00
01
00
00
00
00
01
01
00
00
00
00
00
ff
00
00
ff
00
00
00
00
ff
00
00
00
00
00
00
ff
00
00
00
00
00
00
00
00
00
ff
01
01
00
00
00
00
00
00
00
ff
00
00
00
01
00
00
00
00
00
00
00
00
00
00
00
00
00
00
00
01
ff
00
00
00
00
00
00
00
00
00
00
00
00
00
00
00
00
ff
01
00
00
00
00
01
00
00
ff
00
00
00
00
00
00
00
01
00
00
00
00
00
00
00
00
ff
00
00
ff
00
02
00
00
00
00
00
00
00
00
00
ff
00
02
00
01
00
00
00
00
01
00
00
00
00
00
00
00
00
00
00
01
00
00
00
00
ff
00
00
ff
ff
ff
00
00
00
00
00
00
00
00
00
00
00
02
00
00
00
00
00
00
00
00
00
00
00
ff
00
00
ff
00
00
00
00
00
00
00
00
00
00
00
00
00
01
00
00
00
00
00
ff
00
00
ff
00
00
00
00
00
00
00
00
ff
00
00
00
00
01
00
00
ff
00
ff
ff
00
00
00
00
00
ff
01
00
00
00
00
01
01
00
00
01
00
00
00
01
00
00
01
00
00
ff
00
ff
00
00
ff
ff
ff
00
ff
00
01
00
00
fe
ff
00
ff
ff
00
00
00
00
01
00
00
00
00
00
00
01
01
00
01
00
00
00
00
00
00
00
ff
ff
00
01
00
00
01
00
00
00
00
00
ff
ff
ff
00
00
01
00
00
00
00
00
00
00
00
00
00
00
01
00
01
01
00
00
00
00
00
00
00
00
00
00
00
00
00
00
00
00
00
ff
00
00
00
00
00
00
00
00
00
00
00
00
00
00
00
00
00
00
01
02
01
ff
00
00
00
00
ff
00
00
01
00
00
00
00
00
00
00
01
00
00
00
00
00
00
01
00
00
00
00
00
00
00
00
00
00
ff
00
ff
00
00
00
00
00
01
00
00
00
00
00
ff
fe
00
00
00
00
ff
00
00
00
00
01
ff
ff
00
00
00
00
00
00
00
00
00
00
01
01
00
ff
00
00
01
01
00
00
00
00
00
00
00
ff
00
00
00
01
00
00
00
00
ff
00
00
00
ff
01
00
00
01
00
ff
00
ff
00
00
00
00
00
00
00
00
00
00
01
00
00
01
00
ff
00
00
00
00
00
00
00
00
ff
00
00
00
00
00
00
00
00
01
00
00
00
00
00
00
00
00
00
00
00
01
00
00
00
00
00
00
00
00
00
00
00
00
00
00
00
00
00
00
00
ff
00
00
00
00
00
01
00
00
00
ff
01
ff
01
00
00
02
00
ff
00
00
00
01
00
ff
00
00
ff
ff
01
00
00
ff
ff
00
00
00
00
01
00
00
00
00
01
00
00
00
01
00
00
00
00
00
00
00
00
00
00
00
ff
01
00
00
00
00
00
01
01
00
00
ff
00
00
00
00
ff
00
00
00
00
00
00
00
00
00
ff
00
00
00
00
00
00
01
00
00
00
00
01
00
00
00
00
00
00
00
00
00
00
01
00
00
00
00
00
00
00
00
01
00
00
00
00
00
01
00
00
ff
00
00
00
00
01
00
00
00
00
00
01
00
00
01
00
00
00
00
00
00
00
00
00
00
00
00
00
00
01
00
01
00
00
00
00
00
00
00
00
ff
00
00
01
00
00
00
00
00
00
00
00
01
01
00
00
00
ff
00
00
00
01
01
00
00
00
00
00
00
00
00
00
00
00
00
00
00
00
ff
00
01
00
00
02
00
00
01
00
00
00
00
00
00
00
00
00
fe
00
00
00
00
ff
00
00
01
00
00
00
00
00
01
02
01
01
01
00
00
00
00
01
00
00
ff
00
00
00
00
ff
00
00
00
ff
00
01
00
00
ff
00
00
00
00
01
00
00
00
00
00
00
00
ff
00
00
00
00
00
00
00
00
00
00
00
01
00
00
00
00
00
00
00
01
01
01
00
00
02
01
00
00
00
00
00
00
00
00
00
00
00
ff
00
ff
00
01
00
00
00
00
01
00
00
00
00
01
00
00
00
00
00
00
00
00
00
00
00
00
ff
00
00
00
00
00
01
01
00
01
01
00
00
01
00
00
00
00
00
00
00
00
00
00
00
00
01
00
00
00
00
00
00
00
00
00
01
00
00
00
00
00
01
00
00
00
00
00
00
00
ff
00
00
00
01
00
00
01
00
00
00
00
ff
ff
00
00
ff
00
00
00
ff
00
00
00
00
00
00
00
00
01
00
00
00
00
00
00
00
00
01
00
00
00
00
00
00
00
00
00
00
00
00
00
00
00
00
01
00
00
01
00
ff
ff
ff
00
00
00
00
01
00
00
00
00
00
00
00
00
00
00
00
00
01
ff
00
00
01
00
00
01
00
01
01
00
ff
00
00
00
00
00
00
00
01
00
00
00
00
00
fe
00
00
00
00
00
00
ff
00
00
00
00
00
00
00
00
00
00
00
00
00
01
00
00
01
00
00
00
00
00
00
00
01
00
00
00
00
00
00
00
00
00
00
01
00
00
00
00
02
00
00
00
00
00
00
00
ff
00
00
00
00
00
00
00
00
00
00
00
01
00
00
00
00
00
00
00
00
00
00
00
00
ff
00
00
00
00
00
01
00
01
01
01
00
00
ff
00
00
00
00
01
00
00
00
00
00
00
00
ff
00
00
00
00
00
00
00
00
00
00
00
ff
00
00
ff
00
00
ff
00
00
00
00
00
00
00
00
00
00
00
00
00
00
00
01
00
00
00
01
00
00
00
00
01
00
01
01
00
00
ff
00
00
ff
00
00
00
00
01
00
00
01
00
00
00
00
00
00
00
00
00
00
01
ff
00
00
01
00
00
00
00
ff
00
00
00
00
00
00
00
00
00
00
00
00
00
ff
00
02
01
00
01
00
ff
00
01
00
00
00
00
00
00
00
00
00
00
00
00
00
00
00
00
ff
00
00
00
00
00
00
00
00
00
00
00
01
00
00
00
00
00
00
01
00
00
02
00
00
00
00
00
00
00
00
00
00
00
00
00
00
00
00
01
00
00
01
00
ff
00
00
00
01
00
00
00
00
00
00
ff
00
00
00
00
00
ff
00
00
00
00
00
ff
00
00
00
00
01
00
00
00
00
01
01
01
00
00
00
01
00
00
00
00
ff
00
00
00
00
00
00
00
00
00
00
00
00
00
00
00
00
ff
00
00
00
00
00
00
00
00
00
00
ff
00
ff
00
00
00
00
00
00
00
ff
ff
00
00
ff
00
00
00
00
00
ff
00
00
00
00
00
00
00
01
00
00
01
00
00
00
00
ff
ff
00
00
00
00
00
00
00
00
ff
00
ff
00
00
00
00
00
00
00
00
00
00
00
00
00
00
00
ff
00
00
00
00
00
00
00
00
00
00
00
00
ff
00
00
00
00
00
00
00
ff
ff
00
01
01
00
01
00
00
ff
00
00
00
00
00
00
00
00
ff
00
00
fe
ff
00
00
01
00
00
00
00
00
00
00
ff
00
ff
00
00
00
00
00
00
00
00
00
00
00
00
00
00
00
00
00
00
01
00
00
00
00
00
00
00
00
00
00
00
00
00
00
00
00
ff
00
00
00
00
00
00
00
00
00
01
ff
00
00
ff
00
00
00
00
00
00
00
ff
00
00
00
00
00
00
00
00
00
00
00
00
00
00
01
01
00
00
00
00
00
00
00
00
ff
00
00
00
00
00
01
00
00
00
00
01
01
00
00
00
00
00
00
00
00
01
00
01
00
00
ff
00
00
00
00
00
00
00
00
00
ff
00
00
00
00
00
ff
00
ff
00
00
00
01
00
02
00
00
00
00
00
00
00
00
00
00
00
00
00
00
00
01
00
ff
01
00
00
00
00
01
01
00
01
00
01
00
00
00
00
00
00
ff
00
00
01
01
00
00
01
00
00
00
00
00
01
00
00
00
00
00
00
00
00
ff
00
00
00
00
00
01
00
00
ff
00
00
00
00
00
00
00
00
00
00
00
00
01
00
00
00
00
00
00
00
00
00
00
00
00
00
ff
00
00
00
00
ff
00
00
01
00
00
00
00
00
00
00
00
00
00
00
00
00
00
00
00
00
00
00
00
00
00
00
00
00
00
00
01
00
01
00
00
00
00
00
00
00
00
00
00
00
00
01
00
00
01
00
01
00
01
01
00
01
ff
ff
01
00
00
00
00
00
01
ff
fe
00
00
00
01
ff
00
00
00
ff
00
00
ff
00
00
00
ff
00
00
ff
00
00
00
00
00
00
00
01
00
ff
00
00
00
00
00
ff
ff
00
ff
ff
00
00
00
00
00
00
00
00
00
00
00
00
00
01
ff
00
00
00
00
00
00
00
00
00
00
00
00
00
02
00
00
ff
00
00
ff
ff
00
00
00
00
ff
00
00
00
00
00
00
00
00
00
00
00
00
00
00
00
01
00
00
00
00
00
00
ff
00
00
00
00
00
00
00
00
00
00
00
00
01
00
00
00
00
00
00
00
00
00
01
00
00
00
00
01
01
00
00
01
00
01
01
00
00
00
01
01
00
00
01
00
00
00
00
00
00
00
00
00
00
00
00
01
00
00
00
00
00
00
00
00
00
00
00
00
00
ff
00
00
00
00
01
00
01
00
00
01
00
ff
00
00
ff
00
00
00
00
00
00
00
00
00
00
00
00
00
00
00
ff
00
00
00
00
ff
ff
00
00
00
00
00
00
ff
ff
00
00
00
00
00
00
00
00
00
00
ff
00
00
00
00
ff
00
ff
00
00
02
00
01
00
01
00
00
01
00
00
00
00
00
00
00
00
00
00
ff
00
00
00
01
00
00
00
00
00
01
00
ff
00
00
00
00
00
00
00
01
01
00
00
01
00
00
00
ff
00
00
00
00
00
00
00
00
00
01
00
00
00
00
00
00
00
00
00
00
00
00
01
00
00
00
00
00
00
00
00
00
00
00
00
00
00
00
00
00
00
01
00
00
ff
00
01
01
00
00
00
00
00
00
00
00
00
00
00
00
00
00
00
00
00
ff
00
00
00
00
00
00
00
00
00
00
00
00
00
00
00
00
00
00
00
00
00
00
00
00
01
00
00
00
00
00
00
00
ff
ff
00
01
00
00
00
00
00
00
00
00
ff
00
00
00
00
00
00
00
ff
00
ff
00
ff
00
ff
00
00
00
00
00
ff
00
00
01
00
00
00
ff
00
00
00
01
00
00
00
00
00
00
00
00
00
00
00
00
ff
00
00
00
00
00
01
00
00
01
00
00
00
00
00
00
00
00
00
00
00
00
00
00
00
00
00
00
01
00
00
00
00
00
00
00
00
00
00
ff
00
00
00
00
00
00
00
00
00
00
00
00
00
00
00
00
00
00
00
01
00
00
00
00
00
00
00
00
01
00
00
00
00
00
00
00
01
00
00
00
00
ff
ff
00
00
01
00
00
00
00
00
00
ff
00
00
00
00
00
00
00
00
00
ff
00
00
00
00
00
00
00
00
00
ff
00
00
00
ff
00
00
ff
00
00
00
00
ff
00
00
00
00
01
01
00
00
00
00
00
00
00
00
00
00
00
00
00
00
00
00
00
00
00
ff
ff
00
00
00
00
00
00
00
00
00
00
00
00
00
ff
00
00
00
00
ff
00
00
00
ff
00
ff
00
00
00
ff
ff
00
00
ff
00
00
00
00
00
00
00
00
00
01
00
00
00
ff
00
00
00
00
00
00
ff
00
00
00
00
00
00
00
00
00
00
00
00
00
00
ff
00
00
00
00
00
00
00
00
00
00
00
00
00
00
00
00
00
00
00
00
00
00
00
00
00
00
00
01
00
00
01
00
00
00
00
00
00
ff
00
00
00
00
00
01
01
00
00
00
00
00
00
00
00
00
00
00
ff
00
00
ff
00
ff
00
00
00
00
00
00
00
00
00
01
00
00
00
00
00
00
00
01
01
00
01
00
00
00
00
01
00
00
00
00
00
00
00
01
00
00
00
00
00
00
00
00
00
00
ff
00
00
00
00
00
00
00
00
00
00
00
00
00
00
01
01
00
00
00
00
00
00
00
00
00
00
00
00
00
00
ff
00
ff
ff
00
00
00
01
00
00
00
00
00
00
00
00
00
00
00
00
00
00
00
ff
00
00
ff
00
00
01
00
00
00
00
00
00
ff
00
00
00
00
00
00
00
00
00
00
00
00
00
00
00
00
00
00
00
00
00
ff
00
00
ff
ff
ff
ff
00
00
00
01
00
00
00
00
00
00
00
00
00
00
00
00
00
00
ff
00
00
00
00
00
00
00
00
00
00
01
00
01
01
00
00
00
01
00
01
00
00
00
00
00
00
00
00
00
00
00
ff
ff
00
00
00
00
01
00
00
01
ff
fe
00
fe
00
00
00
00
01
01
00
00
00
00
00
00
00
ff
00
00
00
00
ff
00
00
00
00
00
ff
01
00
ff
01
01
01
00
00
00
01
01
00
00
00
00
00
00
00
ff
00
ff
ff
00
00
00
ff
ff
00
ff
00
00
ff
00
00
00
01
00
00
00
00
00
00
00
ff
ff
00
01
00
00
02
01
00
00
00
00
00
00
00
00
00
00
00
00
00
01
00
00
01
01
00
ff
00
00
00
00
00
01
00
00
00
00
00
00
01
00
00
00
00
00
00
00
00
ff
00
00
00
00
00
00
00
00
00
00
00
00
00
00
00
00
ff
00
ff
00
01
01
ff
00
00
ff
00
00
00
00
00
00
00
00
00
01
00
00
00
00
00
ff
00
00
00
00
ff
00
00
00
00
00
00
00
00
00
00
00
00
ff
00
00
00
00
00
00
00
00
00
00
ff
01
00
00
00
00
00
00
00
00
00
00
ff
01
00
00
00
00
00
00
00
00
00
00
00
00
00
00
ff
00
00
ff
00
00
01
00
00
00
00
00
00
00
00
01
00
00
00
00
00
00
00
00
00
00
00
00
00
01
00
00
00
00
00
00
00
00
00
ff
00
00
fe
00
01
00
00
00
01
00
00
00
00
00
00
00
00
00
00
00
ff
00
00
00
00
01
01
00
00
00
00
01
00
00
00
00
00
00
01
00
00
00
00
01
01
00
00
00
00
00
00
00
00
00
00
00
01
ff
00
00
00
ff
00
00
00
00
00
ff
00
ff
00
00
00
00
00
00
01
00
ff
00
00
00
00
00
00
00
00
00
00
00
00
00
00
00
00
01
00
00
00
00
00
00
00
00
00
00
01
00
01
00
00
00
00
00
00
00
00
00
01
00
00
00
00
00
01
00
01
00
00
01
00
00
01
00
00
00
00
00
00
00
00
00
00
00
00
00
01
00
02
01
00
00
00
00
01
00
00
00
00
ff
00
00
ff
00
00
01
00
00
00
00
00
00
00
ff
00
00
00
00
00
00
00
ff
ff
00
00
00
00
00
01
01
00
00
ff
00
00
ff
00
00
00
01
00
00
00
00
00
00
00
00
00
00
00
00
00
00
00
00
00
00
00
00
00
00
ff
00
00
00
00
00
00
00
00
00
00
00
00
00
00
00
00
00
00
00
01
00
00
00
00
ff
00
00
00
00
00
ff
00
00
00
00
00
ff
00
00
00
01
00
01
00
00
00
00
ff
ff
00
00
00
00
00
00
00
00
00
00
00
01
00
01
00
00
01
00
00
00
00
00
00
00
00
00
00
00
00
01
00
00
00
00
00
ff
ff
00
00
00
00
00
00
00
01
00
00
00
01
ff
00
00
00
00
00
ff
00
00
00
00
00
00
01
01
01
00
00
01
00
00
00
00
00
00
00
00
00
00
00
00
00
00
00
00
00
00
00
00
00
00
ff
ff
00
00
00
00
01
00
00
00
00
01
01
00
00
00
00
01
00
00
00
00
00
01
00
00
00
00
00
00
00
00
01
00
00
ff
00
00
00
00
01
00
00
00
00
00
00
00
00
00
ff
ff
00
01
00
00
00
00
00
00
00
00
00
00
00
00
00
00
00
00
00
00
00
00
00
00
00
00
00
00
00
00
00
ff
00
00
00
ff
00
01
00
00
00
00
01
00
00
00
00
ff
00
00
00
00
00
00
00
00
00
00
00
00
00
00
00
00
ff
00
00
00
00
00
00
00
00
00
00
00
02
00
00
00
00
00
fe
00
00
00
00
00
00
00
00
00
00
00
00
ff
00
00
00
ff
00
00
00
ff
ff
00
ff
ff
00
00
00
00
00
01
00
00
00
00
ff
ff
00
00
ff
00
00
00
00
00
00
00
00
00
00
00
00
00
00
00
00
00
00
ff
00
00
00
00
01
00
00
00
00
00
00
01
00
00
00
00
01
00
00
00
00
00
01
ff
00
01
ff
00
00
00
ff
00
00
00
00
00
00
00
00
00
00
00
00
00
00
00
00
00
00
fe
00
00
00
00
01
00
00
00
ff
00
00
ff
01
00
00
00
00
00
00
01
00
00
00
02
00
00
00
ff
00
02
ff
00
00
ff
00
00
00
00
00
00
00
00
ff
00
ff
00
00
00
01
00
00
01
00
01
00
01
01
00
00
00
00
00
00
00
00
01
00
00
ff
ff
00
fe
00
00
fe
00
00
00
00
00
00
00
00
00
00
ff
ff
00
00
00
00
00
ff
00
01
00
00
00
00
00
00
ff
00
00
00
00
00
00
00
00
ff
01
ff
00
00
00
00
00
00
00
00
00
00
00
00
00
00
00
00
00
00
00
00
00
00
00
ff
00
01
00
00
00
fe
00
00
ff
00
00
00
00
00
00
01
fe
00
01
00
00
00
00
00
00
00
00
00
00
00
00
ff
00
00
00
00
00
00
00
00
00
00
00
00
ff
00
00
ff
00
00
00
00
00
00
00
00
ff
00
00
ff
00
ff
00
00
00
00
00
00
00
ff
00
00
ff
00
00
00
00
00
01
00
00
00
00
ff
00
01
00
fe
00
00
ff
00
00
00
00
00
00
ff
01
02
01
00
00
00
00
00
00
00
00
00
01
00
00
00
00
00
00
00
00
ff
00
00
00
00
00
00
ff
01
00
00
00
01
00
00
ff
ff
00
00
00
00
00
00
00
00
ff
00
00
00
00
00
01
00
01
00
00
00
00
00
00
ff
01
fe
fe
00
00
ff
00
00
ff
00
00
00
00
00
00
00
00
00
00
01
ff
01
00
00
01
00
00
00
01
01
00
00
00
00
01
01
00
00
01
01
01
01
00
ff
00
00
00
02
ff
00
00
00
00
00
00
00
00
00
00
00
00
00
01
00
01
01
00
00
00
00
00
ff
00
00
00
ff
01
00
00
01
00
00
00
00
ff
01
00
ff
ff
00
ff
01
02
ff
00
00
00
00
ff
01
00
00
01
01
00
00
00
01
01
01
00
00
00
00
00
00
02
00
00
00
00
00
00
00
00
00
00
00
00
00
ff
00
00
00
00
00
ff
00
00
00
ff
00
00
00
00
00
01
00
00
00
00
ff
ff
00
00
ff
01
01
00
00
fe
ff
01
00
00
01
00
00
00
fe
00
00
00
00
00
00
ff
ff
00
ff
00
01
00
00
00
00
00
00
00
01
00
00
00
01
00
01
00
ff
ff
00
ff
00
00
ff
00
00
fe
00
ff
ff
00
00
01
00
ff
fe
00
00
00
01
01
01
00
00
00
01
00
01
01
00
00
01
01
00
01
02
ff
00
00
ff
00
00
00
00
00
ff
00
01
00
01
00
00
00
00
00
00
00
00
00
01
02
00
00
00
00
00
00
00
ff
00
02
ff
00
02
00
00
00
00
ff
01
00
00
00
00
00
00
00
ff
01
00
00
00
00
00
00
00
00
00
00
00
ff
00
00
ff
00
00
00
00
00
00
00
00
ff
00
00
ff
00
00
00
00
00
00
00
00
00
00
00
00
00
00
00
ff
00
00
00
ff
02
ff
ff
01
00
ff
00
00
00
ff
00
00
00
00
ff
00
00
00
00
00
01
00
00
00
00
00
00
00
00
00
00
00
00
00
01
01
00
00
00
00
00
ff
00
00
ff
00
00
00
00
00
00
ff
00
00
00
ff
00
00
00
ff
00
00
fe
01
00
00
00
00
00
02
00
00
00
00
00
00
00
00
00
00
00
00
00
00
ff
fe
00
00
00
00
00
01
00
00
00
00
00
00
00
01
01
00
00
00
00
00
00
00
00
00
00
ff
00
00
01
00
00
00
00
00
00
01
00
00
00
00
00
00
01
00
01
00
00
ff
ff
00
00
00
00
00
01
00
00
00
ff
ff
ff
00
00
00
00
00
00
00
01
00
00
00
00
00
00
00
00
ff
00
00
02
02
00
00
01
00
00
01
00
00
01
00
00
ff
00
00
00
00
00
00
00
00
00
00
00
00
00
02
02
00
00
00
00
00
00
00
00
00
00
00
ff
00
00
00
00
00
00
00
00
01
00
00
00
00
00
00
00
00
00
00
00
ff
00
01
01
ff
01
01
ff
00
00
00
00
01
00
00
ff
00
01
00
00
00
01
00
01
01
00
00
00
00
00
00
00
00
00
00
00
01
00
fe
00
00
ff
ff
00
00
00
00
00
00
00
00
01
00
00
00
00
ff
00
00
00
01
00
00
00
00
00
ff
00
00
00
ff
00
00
00
00
01
00
00
00
00
00
00
00
ff
00
00
00
01
00
00
00
00
01
00
00
00
00
00
00
00
00
00
00
ff
00
00
00
ff
00
00
00
00
00
00
00
ff
00
00
00
00
00
00
01
00
00
00
00
00
00
00
00
00
00
00
00
00
00
00
00
00
01
00
ff
00
00
00
00
00
00
00
00
00
00
00
00
00
00
00
00
01
01
00
00
01
ff
00
00
00
00
00
00
00
00
00
00
00
01
01
00
02
00
00
ff
00
00
00
00
00
ff
ff
00
01
00
00
00
00
00
00
ff
00
00
00
00
00
ff
00
ff
00
ff
02
00
00
00
00
00
00
00
00
ff
ff
00
ff
fe
00
ff
00
00
00
ff
01
01
00
00
01
00
00
00
ff
01
00
00
00
00
00
00
00
00
00
00
00
01
00
00
00
00
00
00
01
01
00
00
00
00
00
00
00
00
00
00
01
00
00
00
fe
00
ff
00
00
00
00
01
00
02
ff
00
00
ff
00
00
00
00
ff
00
00
ff
00
00
00
00
00
00
00
00
00
00
00
00
00
00
00
00
ff
00
00
00
00
00
00
ff
00
01
00
00
01
00
00
00
ff
00
01
00
ff
00
00
00
00
00
00
00
00
00
ff
ff
00
00
00
00
00
00
00
01
01
ff
00
00
00
00
01
00
00
00
00
00
00
00
00
00
01
00
01
00
00
00
00
fe
00
00
ff
00
00
00
00
00
00
00
00
01
01
00
00
00
00
01
00
ff
01
00
00
00
00
00
00
00
00
00
00
00
00
00
00
00
00
00
00
00
00
00
00
01
00
fe
00
00
00
00
00
ff
00
00
fe
00
00
00
01
00
00
00
00
00
00
00
00
00
00
01
00
00
00
00
00
ff
01
ff
ff
00
01
01
00
02
01
00
00
00
00
00
ff
01
00
00
00
00
00
00
ff
00
00
00
00
00
01
00
00
01
01
00
01
01
00
00
00
00
ff
fe
01
00
00
00
01
00
00
00
00
00
00
ff
00
00
00
00
00
ff
00
ff
00
00
00
00
00
00
fe
01
01
00
00
00
00
00
01
00
00
00
00
00
00
00
ff
00
00
00
ff
ff
00
00
00
00
00
00
00
00
00
ff
00
00
00
00
00
00
00
00
00
01
00
00
00
00
00
00
00
00
ff
00
00
00
00
00
01
00
00
00
00
00
00
00
01
00
01
01
00
ff
00
ff
00
00
00
00
00
00
00
00
00
00
00
ff
00
00
00
00
00
00
00
00
00
00
00
00
00
ff
00
00
00
ff
ff
00
ff
fe
02
00
00
00
01
00
00
00
00
00
00
00
00
00
00
00
00
00
ff
00
ff
00
02
00
00
ff
ff
00
00
00
00
ff
00
00
00
00
00
01
01
00
00
00
00
00
00
00
00
ff
00
00
00
00
00
00
00
00
00
00
00
00
ff
ff
00
00
00
00
00
00
00
00
00
00
00
fe
fe
00
ff
00
01
00
00
00
00
01
00
00
00
00
00
fe
00
00
00
02
00
00
00
00
01
00
00
00
00
00
00
00
01
00
00
00
00
00
00
00
00
01
00
00
00
01
00
00
00
ff
01
00
00
01
00
00
00
00
00
01
00
00
00
00
00
ff
00
01
00
00
00
ff
00
00
00
ff
00
01
00
00
01
00
ff
00
00
00
fd
fc
00
ff
fe
02
01
00
00
ff
00
00
ff
00
00
00
00
00
00
00
00
01
00
00
01
00
00
00
00
00
ff
00
00
00
00
00
00
00
00
00
00
00
ff
00
00
00
00
00
00
00
00
00
01
00
ff
00
00
00
02
00
00
00
00
00
00
00
ff
fe
00
00
00
01
ff
00
00
00
00
00
00
00
00
00
ff
00
00
00
00
00
00
ff
00
01
00
00
01
00
00
00
ff
00
ff
00
00
ff
00
00
00
00
00
00
00
00
ff
00
00
00
00
00
00
00
00
00
00
00
00
00
00
00
00
00
00
00
00
01
00
00
00
00
01
01
00
00
00
00
00
00
00
00
00
00
00
00
00
fe
ff
00
00
00
00
00
00
00
00
00
00
00
00
00
01
01
00
ff
00
00
ff
00
00
00
00
00
00
ff
00
00
00
00
00
01
00
00
00
00
00
00
00
00
00
00
00
00
00
01
ff
00
01
00
00
ff
00
00
ff
00
00
00
00
00
00
00
00
ff
ff
00
00
00
00
00
00
00
00
01
00
00
00
00
00
fe
00
01
00
00
00
00
00
00
00
00
ff
00
00
00
00
00
00
00
00
00
00
01
01
00
00
02
02
01
00
01
00
00
00
00
00
00
00
00
00
00
01
00
00
00
ff
00
00
00
00
00
00
00
ff
ff
01
00
00
00
00
00
00
ff
ff
00
ff
ff
00
00
00
00
00
00
00
00
01
01
00
00
01
00
01
00
00
01
00
ff
fe
ff
00
fe
00
00
00
01
00
00
00
00
02
00
01
00
00
00
00
00
00
ff
00
00
00
00
00
00
00
ff
00
ff
00
00
00
00
00
00
00
00
00
00
02
00
00
ff
00
ff
00
00
ff
00
00
00
00
00
ff
00
00
00
00
00
00
00
00
00
00
02
00
ff
01
00
00
01
01
00
ff
02
00
00
00
00
00
01
03
ff
00
01
00
ff
00
ff
00
00
00
00
00
00
ff
00
00
00
ff
00
00
00
02
ff
ff
ff
01
01
00
00
01
00
00
00
00
00
ff
01
00
fe
00
00
00
00
00
00
00
00
00
00
00
00
00
00
01
ff
01
01
00
ff
ff
ff
ff
00
00
00
01
00
00
00
00
00
ff
00
00
00
00
00
00
00
00
00
01
00
00
00
01
01
00
00
00
00
ff
00
ff
ff
00
ff
00
00
00
00
00
ff
00
00
00
01
01
00
00
00
00
00
00
00
00
00
00
00
00
00
00
00
00
00
00
00
00
00
ff
00
00
ff
00
00
01
00
00
00
00
00
00
01
00
00
00
fe
00
00
00
00
00
02
ff
00
00
00
00
00
00
00
01
01
00
00
00
00
00
00
00
00
00
00
00
00
01
00
00
00
01
ff
00
03
ff
00
01
00
00
00
00
00
ff
00
01
00
00
00
ff
01
00
00
00
00
00
00
00
01
01
ff
fe
00
00
00
00
00
00
ff
00
00
ff
00
00
00
00
00
00
00
00
00
00
00
01
00
00
00
00
00
00
ff
ff
00
02
00
00
00
00
00
00
00
00
00
00
00
00
00
00
00
00
00
00
ff
00
00
ff
00
00
00
00
00
00
00
00
00
00
01
01
01
00
00
00
00
00
00
00
00
00
00
00
00
00
00
00
00
00
ff
00
ff
00
00
01
00
00
00
00
01
00
00
00
ff
00
00
00
00
01
00
01
00
00
01
00
00
00
00
00
00
00
00
00
00
00
00
01
00
00
00
00
00
00
00
00
00
00
00
00
01
01
00
00
01
00
02
00
ff
00
01
00
00
00
00
00
00
00
00
00
00
00
00
00
00
ff
00
00
00
00
00
00
01
00
00
00
01
00
01
02
00
ff
ff
00
00
00
00
00
00
00
00
00
00
00
00
01
00
ff
00
00
00
00
00
00
00
01
00
00
00
00
00
ff
ff
ff
fe
ff
ff
00
00
00
01
00
00
00
00
00
01
01
00
00
00
00
00
00
ff
00
00
00
00
00
00
00
ff
00
ff
00
00
fe
fe
00
ff
00
00
00
00
00
01
00
00
00
00
00
ff
00
00
00
00
01
00
00
00
00
00
00
00
00
01
ff
00
00
00
00
00
00
01
00
00
00
00
ff
00
00
00
00
00
00
00
00
00
01
00
00
00
00
00
00
00
01
01
00
ff
00
00
ff
00
00
00
00
00
00
00
00
01
00
ff
00
00
00
00
00
00
00
00
00
00
00
00
00
00
00
00
00
00
00
00
00
00
00
00
01
01
01
00
00
00
01
00
00
00
00
00
00
00
00
00
ff
00
00
00
00
00
00
00
00
00
00
00
01
00
00
00
00
00
00
00
00
ff
ff
00
ff
00
00
ff
00
00
00
00
ff
ff
ff
00
00
00
00
00
00
00
00
ff
01
00
ff
00
00
00
00
00
00
00
01
00
00
00
01
00
00
ff
00
00
00
00
01
01
00
00
00
01
00
00
00
01
00
ff
00
00
00
00
00
00
00
00
00
00
00
00
00
00
00
00
00
00
01
01
00
00
00
00
00
00
00
ff
00
fe
00
00
ff
ff
00
00
ff
00
00
00
00
01
01
00
00
00
00
00
00
00
01
00
00
00
00
00
00
00
00
ff
ff
00
00
00
00
00
00
00
01
01
00
01
00
01
ff
fe
ff
00
ff
00
00
00
00
00
01
00
00
00
00
01
00
00
00
00
00
00
00
00
00
00
00
00
ff
01
00
00
00
00
00
00
ff
00
01
00
ff
00
00
00
00
00
ff
00
00
00
00
00
00
00
00
00
00
01
00
00
00
00
00
ff
00
00
00
00
00
00
ff
00
00
00
00
00
00
00
00
00
00
00
00
00
ff
ff
00
01
00
00
ff
00
00
00
00
00
00
00
00
00
00
00
00
00
00
00
00
00
00
01
00
ff
00
00
00
00
00
01
00
00
00
00
00
00
ff
00
ff
00
00
00
00
00
00
00
00
00
00
00
00
00
00
00
01
00
00
00
00
00
00
00
00
01
00
00
00
00
00
01
00
00
00
01
00
00
00
ff
ff
00
00
00
00
ff
00
00
00
00
00
00
00
00
00
00
00
00
01
00
00
00
ff
ff
00
00
00
00
00
ff
00
00
00
00
00
00
00
00
00
00
00
00
00
00
00
00
00
00
00
00
00
00
00
ff
00
00
00
00
00
00
01
00
00
00
00
ff
01
00
ff
ff
00
00
ff
ff
01
00
00
00
00
00
00
00
00
00
01
00
00
00
00
00
ff
00
01
01
00
00
00
01
00
00
00
00
00
00
00
00
00
00
00
00
00
00
00
00
00
00
00
00
01
00
00
00
00
01
00
00
00
00
00
00
00
00
00
00
00
00
00
01
00
00
00
00
00
ff
00
ff
00
00
00
01
01
00
00
ff
00
00
00
ff
00
00
00
00
00
00
00
01
00
00
00
00
00
00
00
02
01
00
00
00
00
00
01
00
00
ff
00
00
00
00
ff
00
00
00
00
00
00
00
00
00
00
00
00
00
00
00
00
00
00
00
00
ff
00
ff
00
00
00
01
00
00
00
00
00
00
00
00
00
00
00
01
01
00
00
00
00
00
00
00
ff
00
ff
ff
ff
00
00
00
00
01
00
00
00
00
00
00
00
00
00
00
00
00
00
00
00
00
00
00
00
01
fe
ff
00
ff
fe
ff
00
00
00
01
00
00
02
00
00
00
00
00
ff
ff
01
01
00
01
ff
00
00
00
01
01
00
00
00
00
00
00
00
00
00
00
00
00
00
00
00
00
00
00
00
00
00
00
01
00
01
02
00
00
ff
00
00
00
00
00
00
00
00
00
00
00
00
00
00
00
01
00
00
00
00
01
00
01
ff
00
00
00
00
00
00
ff
00
ff
00
fe
ff
ff
00
00
00
00
00
01
00
00
00
00
00
00
00
ff
00
00
ff
00
00
00
00
00
00
00
00
01
00
00
00
00
00
00
00
00
00
00
00
01
00
ff
00
00
ff
ff
00
00
00
00
ff
00
00
00
ff
00
01
00
00
ff
00
00
00
00
00
00
00
00
00
00
00
00
00
00
00
00
01
ff
ff
00
ff
fe
ff
00
00
00
ff
00
00
00
00
00
ff
ff
00
00
ff
00
00
00
00
00
ff
00
00
00
00
01
01
00
02
01
00
00
00
00
00
00
00
00
00
00
00
00
00
ff
00
00
00
00
01
00
00
00
00
00
00
00
01
00
00
00
00
00
00
00
00
00
00
ff
00
01
00
00
00
ff
ff
00
00
00
00
00
00
00
00
00
01
00
01
00
00
00
00
00
ff
00
01
00
00
01
02
01
01
00
00
00
00
00
00
00
00
ff
00
01
00
ff
01
00
00
00
ff
ff
00
ff
00
00
00
00
00
01
01
00
00
01
00
ff
00
00
00
00
00
00
00
00
00
00
00
00
01
01
00
00
00
fd
fe
fe
00
00
00
00
00
00
00
00
00
01
00
01
02
00
01
00
01
00
00
ff
ff
01
00
00
01
00
00
01
00
00
00
00
00
01
01
00
01
00
00
00
00
00
00
00
00
00
00
00
01
00
01
01
00
00
01
00
ff
00
00
00
00
00
00
00
ff
00
00
00
00
00
00
00
00
00
00
ff
00
00
00
00
00
00
00
00
00
00
00
00
00
00
01
ff
ff
00
00
01
00
00
00
00
00
00
00
ff
00
00
ff
00
00
00
00
ff
ff
ff
00
00
ff
00
00
00
00
00
00
ff
00
00
ff
00
00
ff
ff
00
00
ff
00
00
00
00
00
00
00
01
00
00
00
00
00
ff
ff
00
ff
ff
00
00
00
00
00
00
01
00
01
00
00
ff
00
00
ff
00
00
00
00
01
00
01
02
01
00
00
00
00
00
00
00
00
00
00
00
00
00
00
00
00
00
00
00
00
00
00
00
ff
00
ff
ff
ff
ff
00
00
ff
00
00
fe
00
00
00
00
00
00
01
ff
00
00
00
00
00
00
00
00
00
01
00
00
01
01
00
00
00
00
00
00
00
00
00
00
00
00
00
ff
ff
00
00
ff
ff
00
00
00
00
00
00
00
00
00
00
00
00
00
00
00
00
00
00
00
00
00
02
00
00
01
00
00
02
00
00
01
00
01
00
00
00
00
00
00
00
00
00
03
03
01
00
00
00
00
00
00
00
00
00
00
00
00
01
00
00
00
00
00
00
00
00
00
00
00
00
00
00
ff
00
00
00
00
00
ff
ff
00
00
00
00
01
00
00
01
01
00
00
00
00
00
00
00
00
ff
00
00
00
00
ff
00
00
ff
ff
00
00
00
00
00
00
00
ff
ff
00
00
00
00
00
fe
ff
00
00
00
00
00
00
00
00
00
00
00
00
00
01
00
00
00
00
ff
ff
ff
01
00
00
03
02
00
00
00
00
01
00
00
ff
fe
ff
fe
ff
00
00
00
00
00
00
00
00
00
00
00
00
00
ff
00
00
00
00
00
00
00
00
00
00
00
ff
00
00
00
00
ff
00
00
00
00
00
00
00
00
00
00
00
01
01
00
00
00
00
00
00
00
00
00
00
00
00
00
01
fe
00
00
00
00
00
00
00
00
ff
00
ff
ff
ff
ff
01
01
ff
00
ff
00
00
ff
ff
01
00
00
00
00
00
01
00
01
00
00
00
00
00
00
01
00
00
00
01
00
00
00
00
ff
ff
00
00
ff
00
00
ff
ff
00
01
00
00
00
00
00
00
00
00
00
ff
00
00
00
00
00
00
01
00
00
01
01
00
00
01
00
00
00
00
00
00
00
00
00
00
00
00
00
01
00
00
ff
ff
00
00
00
00
00
00
00
00
00
00
ff
00
ff
ff
00
ff
ff
00
00
00
00
02
00
00
01
00
00
00
ff
00
00
00
00
00
00
ff
00
00
00
02
01
00
00
00
ff
ff
00
ff
ff
00
00
ff
00
ff
ff
00
00
ff
00
00
00
01
00
01
01
00
00
00
00
00
00
00
00
00
00
00
ff
00
00
ff
00
00
ff
ff
00
00
ff
00
01
00
00
02
00
01
00
01
01
00
00
00
00
00
00
00
00
01
00
00
00
00
00
ff
00
00
00
00
00
00
00
00
00
02
01
00
ff
ff
00
00
00
00
00
00
00
00
01
00
00
00
00
01
01
00
ff
ff
00
fe
fe
00
00
00
00
01
01
00
fe
ff
00
00
02
00
00
00
00
00
ff
ff
00
00
00
ff
ff
00
00
00
01
00
ff
00
00
00
00
00
ff
00
00
00
00
00
00
00
00
00
ff
00
00
00
00
ff
00
00
00
00
fe
ff
00
00
00
00
ff
ff
00
00
00
00
00
00
00
00
00
00
00
ff
00
00
00
00
00
00
00
00
00
00
00
00
ff
00
00
00
00
00
00
00
00
00
00
00
00
00
00
00
00
00
00
00
00
00
00
00
00
00
00
00
ff
00
00
00
00
01
ff
00
00
00
00
00
00
ff
01
00
00
00
01
01
01
00
00
01
00
ff
00
01
00
00
00
00
00
00
00
00
00
00
01
00
03
00
ff
ff
00
ff
00
ff
00
00
00
00
00
00
00
ff
00
00
00
00
00
00
00
00
01
00
00
00
01
00
01
01
01
00
00
00
00
00
00
00
00
00
00
00
00
00
01
02
01
00
00
00
00
00
00
00
00
00
00
ff
ff
00
01
01
00
00
00
ff
00
00
00
ff
ff
00
ff
ff
00
00
00
01
00
00
00
00
00
00
00
00
00
00
00
00
00
00
00
00
00
00
00
00
01
00
00
00
03
02
00
02
00
00
00
00
00
02
01
01
02
00
00
00
00
00
00
00
00
00
00
00
00
00
00
00
ff
00
ff
00
00
00
00
00
00
00
00
00
00
00
00
00
00
00
00
00
00
00
00
00
00
00
00
00
01
00
00
00
00
01
ff
00
00
00
00
fe
00
00
00
00
00
00
00
00
00
00
00
00
01
00
00
00
00
00
01
00
00
00
00
00
00
ff
00
00
00
00
00
00
00
ff
00
00
00
00
ff
00
00
00
01
00
00
00
00
00
00
00
00
00
ff
00
ff
00
01
00
00
00
00
00
00
00
00
00
00
00
00
00
00
00
00
01
00
01
00
00
00
ff
00
00
00
00
00
00
00
00
00
00
00
00
00
00
00
00
01
00
00
00
00
00
00
00
00
00
00
00
00
00
00
00
00
00
ff
00
00
00
00
00
ff
00
00
00
00
00
00
00
00
01
00
00
00
00
ff
00
ff
00
00
ff
00
01
00
00
00
00
00
00
00
00
00
00
00
00
00
00
00
00
00
00
00
00
00
00
00
00
00
00
01
00
00
00
ff
00
00
00
00
01
00
00
00
ff
ff
00
00
00
00
00
00
ff
00
00
00
00
01
01
00
00
00
00
00
00
00
00
00
00
ff
00
00
ff
00
00
00
00
01
00
00
00
00
00
00
00
00
00
00
01
00
00
00
00
01
01
00
00
00
00
00
00
00
00
00
00
00
00
01
00
00
00
00
00
00
00
00
00
00
00
00
00
00
00
00
00
00
00
00
00
00
00
00
00
00
00
00
ff
00
00
00
00
00
00
00
00
00
00
00
00
ff
00
00
00
00
01
00
00
00
00
00
00
00
01
00
00
00
00
00
00
00
00
00
00
00
00
00
00
ff
01
00
00
00
00
00
00
01
02
00
00
01
00
00
00
00
00
00
00
00
00
00
00
00
00
00
00
00
00
00
00
00
00
00
00
00
00
00
ff
00
00
00
00
00
00
00
ff
00
00
ff
ff
00
00
00
00
ff
00
00
00
00
00
00
ff
00
00
00
00
00
00
00
00
00
00
00
00
00
00
01
00
00
00
00
00
00
00
00
00
00
00
00
00
00
00
00
00
00
00
00
00
00
00
02
00
00
00
00
00
00
00
00
00
00
00
00
00
00
00
00
ff
00
00
00
00
00
00
00
00
ff
00
00
00
00
00
00
00
ff
00
ff
ff
ff
ff
00
ff
00
00
00
00
00
00
00
00
00
00
00
00
00
00
00
00
00
00
01
01
00
00
02
00
00
00
00
00
01
00
00
00
00
00
00
00
00
ff
00
00
00
00
01
00
00
00
00
01
00
00
00
00
00
00
00
00
01
01
01
00
00
00
ff
00
00
ff
00
00
00
00
ff
00
ff
01
01
01
01
01
00
00
00
02
00
00
00
ff
00
00
ff
01
01
00
00
01
01
ff
02
00
00
00
00
00
fe
ff
ff
ff
00
00
00
00
00
00
00
00
00
00
00
00
00
00
00
00
00
ff
00
00
ff
00
00
00
01
00
00
01
00
ff
00
00
00
00
00
00
00
00
00
00
00
00
00
00
00
00
00
00
01
00
00
00
00
00
00
00
01
00
00
00
00
00
00
00
00
00
00
00
00
00
00
00
00
00
00
00
00
00
00
00
00
00
00
00
00
00
00
00
00
00
00
00
00
00
00
00
01
00
00
00
00
00
00
00
00
00
01
00
ff
00
00
00
00
00
00
00
00
ff
00
00
00
00
00
00
00
00
00
00
00
00
00
01
ff
00
00
00
00
00
00
00
00
00
00
00
00
00
00
00
00
01
00
00
00
00
00
00
00
00
00
00
01
ff
00
00
00
00
01
00
00
00
00
00
00
00
01
00
00
00
00
00
00
ff
01
00
00
00
00
00
00
01
00
00
00
00
00
00
00
00
00
ff
00
00
00
00
00
00
00
00
00
00
00
00
00
ff
00
00
00
00
00
00
01
01
00
00
00
00
00
00
00
00
00
00
00
00
00
00
00
00
00
00
00
ff
01
01
00
00
00
01
00
00
00
00
00
00
ff
ff
00
00
fe
00
00
00
00
00
ff
00
00
00
00
00
ff
00
00
00
00
00
00
00
00
00
00
00
00
00
00
00
00
00
00
00
00
00
00
01
00
00
00
00
ff
00
00
00
00
00
00
ff
00
ff
00
ff
00
00
00
00
ff
00
01
00
00
01
00
00
00
00
00
ff
00
00
00
00
00
00
00
00
00
00
00
00
00
00
00
00
00
00
00
00
00
00
00
ff
00
01
00
00
00
00
00
00
00
00
00
00
00
00
ff
ff
00
ff
fe
fe
00
00
00
00
01
00
00
00
ff
ff
00
01
ff
00
00
00
00
00
00
00
00
00
01
00
ff
01
00
00
00
00
00
00
00
00
00
00
00
00
00
00
00
00
00
00
01
00
00
00
00
00
00
00
00
00
00
00
00
00
00
00
00
ff
00
00
00
00
00
00
00
00
01
00
00
00
00
00
00
ff
00
00
00
ff
ff
00
ff
00
00
00
00
00
00
00
ff
ff
00
00
00
00
00
00
00
00
00
00
00
00
00
00
ff
00
00
ff
00
00
ff
00
00
00
00
00
ff
00
00
00
00
00
00
01
00
00
00
00
00
03
00
00
00
00
00
00
00
00
00
00
00
00
00
00
00
ff
00
00
00
ff
ff
00
00
00
00
00
00
00
00
00
00
00
00
ff
00
00
00
00
00
00
00
00
01
00
ff
00
00
00
00
00
00
00
00
00
00
00
00
00
01
00
00
00
ff
00
00
00
01
ff
ff
00
ff
ff
00
00
00
00
00
00
00
00
00
00
ff
00
00
01
00
00
00
00
00
00
00
00
00
ff
00
00
ff
00
ff
00
01
00
00
00
00
00
01
00
00
00
00
00
00
00
00
01
ff
00
00
00
00
00
00
00
00
01
01
00
00
00
00
00
00
00
00
00
00
00
00
01
00
ff
00
ff
ff
00
00
ff
00
00
ff
00
00
00
00
00
00
00
00
00
01
ff
00
00
00
00
00
00
01
00
00
00
ff
00
00
00
00
00
00
00
00
00
00
00
00
00
00
01
00
00
01
00
00
00
00
00
ff
00
00
00
00
ff
ff
00
ff
ff
00
00
00
00
00
00
00
00
00
00
00
00
00
00
00
00
00
00
ff
00
00
00
00
00
ff
00
00
00
00
01
00
00
00
00
00
01
00
00
00
00
00
00
00
00
ff
00
00
00
01
00
ff
00
00
ff
00
00
00
00
00
ff
00
00
00
00
00
00
00
01
00
00
01
00
ff
ff
00
00
00
00
00
00
00
00
ff
00
00
00
00
00
00
00
00
00
ff
00
00
00
00
00
00
00
00
00
00
00
00
00
00
00
00
00
00
00
01
01
00
00
ff
00
00
00
00
00
00
00
00
00
00
00
00
01
00
00
00
fe
00
00
00
00
00
00
00
00
00
00
00
00
00
00
00
00
00
00
01
00
00
00
00
01
01
00
01
00
00
00
00
01
02
01
00
01
00
00
00
00
00
00
00
00
00
00
00
00
01
ff
00
00
00
00
00
00
00
00
00
01
00
00
01
00
ff
00
00
00
00
00
01
00
00
00
00
00
00
00
ff
00
00
00
00
00
00
00
00
00
ff
00
01
00
00
00
00
00
00
01
01
00
00
00
00
00
00
01
00
01
01
00
01
00
00
01
01
00
01
00
00
00
00
00
00
00
00
00
00
00
00
00
ff
00
00
00
01
00
ff
ff
00
00
00
00
00
00
00
00
00
00
00
00
00
00
00
00
00
00
00
00
00
00
00
00
00
01
00
00
00
00
00
00
00
00
00
00
00
00
00
00
00
ff
00
ff
00
00
00
00
01
00
00
00
01
00
00
00
00
00
00
00
00
00
00
00
00
00
00
01
00
00
01
01
00
00
00
ff
00
00
00
ff
00
00
00
00
ff
00
00
00
00
00
00
00
00
00
01
00
00
ff
00
01
00
00
00
00
00
00
00
00
00
00
ff
00
00
ff
00
00
ff
00
00
00
00
00
01
00
00
00
ff
01
00
01
00
00
ff
00
00
00
00
00
00
00
00
00
00
01
00
00
01
01
ff
01
00
00
00
ff
00
00
00
ff
00
00
00
00
01
ff
00
00
01
00
00
00
00
00
00
ff
00
00
ff
00
00
00
ff
01
ff
00
00
01
00
00
00
00
00
00
00
00
00
ff
00
ff
00
00
00
00
00
00
00
01
00
00
00
00
00
00
01
00
00
00
00
00
01
00
00
00
00
00
00
00
00
00
00
00
00
00
00
00
00
00
00
00
00
00
00
00
00
00
00
01
00
00
00
00
00
00
00
00
ff
00
00
00
ff
00
01
00
00
00
00
00
00
00
00
01
00
00
01
00
00
00
00
00
ff
00
01
00
00
01
00
00
00
00
00
ff
00
00
00
00
01
00
00
00
00
00
00
00
00
00
00
01
00
01
01
00
00
00
00
ff
00
00
00
00
00
00
00
00
00
00
00
01
00
00
00
00
00
00
00
00
00
00
00
00
00
00
00
00
00
00
00
00
00
00
00
00
00
ff
00
00
00
00
00
00
00
00
00
00
ff
ff
00
ff
00
00
00
00
00
00
00
00
ff
00
ff
00
00
00
ff
00
00
00
00
00
ff
00
00
00
00
00
00
00
00
00
00
01
01
00
00
00
00
01
ff
00
01
00
00
00
00
00
00
00
00
00
00
00
00
00
00
00
00
01
00
00
01
00
00
00
00
01
00
00
01
00
00
00
00
00
00
00
00
00
01
00
00
00
00
00
00
00
00
00
00
ff
00
00
00
00
00
01
00
01
00
00
00
00
00
00
00
00
00
00
00
00
00
01
00
00
00
00
00
01
00
00
00
ff
00
00
00
fe
00
00
00
00
00
00
00
00
00
00
ff
00
00
ff
00
00
00
00
00
00
01
00
00
01
00
00
00
00
00
00
00
00
00
00
00
00
00
00
00
00
00
ff
00
00
fe
00
00
00
ff
00
00
00
ff
00
00
01
00
00
01
01
00
00
00
00
ff
ff
00
00
00
00
00
00
00
00
00
01
00
00
00
00
00
00
00
00
00
00
00
ff
00
00
00
00
00
00
00
00
00
00
00
00
00
00
00
00
00
00
00
00
00
00
00
00
01
00
00
00
00
00
00
00
00
00
00
00
00
00
00
00
00
01
00
00
00
00
00
00
00
ff
00
00
ff
00
00
00
01
00
00
00
00
ff
ff
00
ff
01
00
00
00
00
00
00
00
00
00
00
00
00
00
00
00
00
00
00
00
00
00
00
01
01
00
00
00
00
01
00
00
00
ff
00
00
00
00
00
00
00
00
00
00
00
00
00
00
00
00
ff
00
00
00
00
00
00
00
00
00
00
00
00
00
00
00
01
00
00
00
00
00
00
00
00
00
00
00
00
00
00
00
00
00
00
00
ff
00
00
00
00
00
00
00
ff
00
ff
00
00
00
00
00
00
01
00
00
01
00
00
00
00
00
00
00
00
00
00
00
00
00
ff
00
01
00
00
02
00
00
00
00
00
00
00
00
00
00
00
00
00
00
00
01
00
00
00
01
00
00
00
00
00
ff
00
00
00
00
00
00
00
00
00
00
00
00
ff
00
ff
fe
00
00
fe
00
01
00
00
00
00
00
00
01
01
00
00
00
00
00
00
00
02
00
00
00
00
00
00
00
00
00
00
00
00
00
00
00
00
00
01
00
01
00
00
00
00
00
ff
00
00
00
ff
00
00
ff
00
00
00
00
00
00
00
00
00
00
00
00
00
00
01
00
00
00
01
00
00
00
00
00
00
00
00
01
00
00
00
00
00
00
00
00
00
00
00
00
ff
00
00
00
00
00
00
00
00
00
00
00
00
01
00
00
00
00
00
01
00
00
00
00
ff
00
00
00
02
00
00
00
00
00
00
00
ff
00
00
00
00
00
00
00
00
ff
fe
00
00
ff
00
00
00
00
00
01
00
ff
00
00
00
00
00
00
01
00
00
00
00
00
01
01
ff
00
ff
ff
00
00
00
01
00
00
00
00
00
00
00
01
00
00
ff
ff
00
00
01
00
00
00
00
00
01
00
00
00
00
00
00
00
00
00
00
01
00
00
00
01
01
00
00
ff
00
00
00
00
00
ff
00
00
00
01
fe
00
01
00
00
00
00
00
00
00
00
00
00
01
ff
00
00
ff
00
00
ff
00
00
00
00
00
00
ff
00
00
00
00
00
00
00
00
ff
00
ff
00
00
00
fe
00
fe
fc
00
ff
fe
00
00
00
00
00
00
00
00
00
00
00
01
00
00
ff
00
00
ff
00
00
00
00
00
00
00
00
00
00
00
00
00
00
00
00
00
ff
00
00
00
00
00
ff
00
00
ff
00
00
00
00
00
00
00
00
00
00
00
01
00
00
00
00
00
00
00
00
01
00
00
00
00
00
00
00
00
00
00
00
ff
00
00
00
00
00
ff
00
00
00
00
00
00
00
00
00
00
00
00
00
00
ff
00
ff
00
01
00
00
00
00
00
00
ff
ff
00
00
ff
00
00
00
01
00
00
00
00
00
01
00
00
00
00
00
00
00
00
00
00
ff
00
00
00
00
00
ff
ff
ff
ff
00
00
ff
00
00
ff
00
ff
fe
00
00
01
00
00
00
00
00
00
ff
00
02
00
00
01
00
00
00
00
ff
ff
00
00
ff
00
00
00
00
ff
00
00
00
00
00
00
00
00
00
00
01
00
ff
00
00
fe
ff
00
00
00
00
00
00
ff
00
00
01
00
01
01
fe
00
00
ff
00
00
00
00
01
02
00
00
02
00
ff
00
00
ff
00
01
00
00
00
00
00
00
01
00
00
00
00
00
00
00
00
00
00
00
00
00
01
ff
00
ff
00
00
00
00
01
00
00
01
00
00
00
00
00
00
00
00
00
00
00
00
00
01
00
00
00
02
00
00
00
00
00
00
00
00
00
00
01
01
00
00
00
00
00
00
00
01
00
00
00
00
00
00
00
00
00
00
00
00
00
00
00
00
00
00
ff
01
00
00
00
00
00
01
ff
ff
00
01
fe
01
00
ff
00
00
00
00
00
ff
00
01
01
00
01
00
00
00
00
00
00
00
00
00
00
00
00
fe
00
00
00
00
00
00
01
00
ff
01
00
ff
01
00
00
00
00
00
ff
00
ff
00
00
00
00
00
00
00
00
00
ff
00
ff
00
00
00
00
00
fd
00
ff
fc
ff
00
ff
00
00
00
00
00
ff
00
00
01
00
02
01
00
00
ff
00
00
ff
00
ff
00
00
00
01
00
00
00
00
00
00
00
00
00
00
00
00
00
00
01
00
00
00
00
00
ff
00
01
01
00
01
00
00
00
ff
00
00
00
00
00
00
00
00
00
00
00
01
00
01
01
00
00
03
00
00
00
00
00
ff
00
ff
fe
00
00
00
00
00
fe
00
00
ff
00
00
00
00
00
01
00
00
00
00
00
01
00
01
00
00
00
00
00
00
00
00
00
ff
00
00
00
00
00
00
00
00
00
00
00
00
00
00
00
00
00
00
00
ff
fe
ff
01
01
00
00
00
00
00
ff
ff
00
00
00
01
ff
00
01
00
00
00
ff
00
00
00
ff
00
00
00
00
00
01
ff
fd
00
00
ff
00
00
00
00
00
00
00
00
00
00
00
00
00
00
00
00
00
00
00
ff
00
00
00
00
ff
00
00
00
00
01
00
01
00
00
02
00
00
00
00
00
00
00
00
00
00
00
00
00
00
01
00
00
00
00
00
00
ff
00
00
fd
00
02
00
01
00
00
00
00
00
01
00
00
00
00
00
00
00
00
00
ff
ff
00
00
00
00
00
fe
00
00
fd
00
00
00
00
00
00
00
00
00
00
00
00
00
00
00
00
00
00
00
00
fe
00
01
00
00
00
ff
00
00
ff
00
00
fd
00
00
ff
00
00
00
00
02
ff
00
