01
01
00
ff
01
fe
ff
00
00
02
fd
00
00
fe
03
05
00
01
02
fd
02
fc
fb
03
fd
fb
04
00
02
01
fe
fd
00
01
ff
05
00
00
00
fe
fd
00
fe
01
00
00
01
00
fd
00
fe
ff
02
01
00
09
00
fe
04
fe
00
fd
fe
fe
00
fe
fe
00
03
01
01
00
f5
f6
fd
fa
f8
fb
fc
fb
ff
fe
ff
00
fd
00
fe
00
02
ff
03
05
fe
07
0b
04
01
05
00
02
01
00
00
02
05
02
fe
01
02
05
00
00
03
00
00
ff
00
01
00
00
01
01
ff
00
01
ff
00
01
03
05
06
02
01
05
00
05
fe
03
02
00
02
03
00
02
00
fe
fe
fe
02
00
00
00
00
00
fc
ff
00
fd
fe
00
00
00
ff
00
01
00
02
00
02
ff
00
00
ff
fa
02
00
fe
03
ff
ff
06
ff
03
01
ff
00
01
00
01
fc
01
01
00
00
01
fc
fa
fe
fd
fe
ff
00
ff
02
00
01
01
fe
00
01
00
00
00
00
01
01
00
fc
02
fb
f3
00
ff
f8
00
ff
ff
fe
ff
00
ff
fe
01
ff
ff
00
fe
ff
00
fe
ff
ff
00
fc
02
00
00
02
fe
01
01
00
00
ff
00
ff
fd
01
02
00
ff
ff
05
00
00
fe
00
ff
00
02
00
fc
00
00
fb
fd
ff
ff
00
fd
f8
fd
fd
fb
fc
00
fc
fd
01
00
00
02
00
ff
fb
fe
fb
ff
fe
03
ff
fd
00
00
fe
03
00
01
01
00
00
01
fe
00
fc
00
00
00
fe
ff
00
01
fe
ff
00
00
00
01
06
00
fd
03
fb
01
00
fe
01
00
fe
00
05
01
00
03
00
fe
fe
00
ff
00
00
00
00
00
fe
ff
ff
02
fd
fe
fd
03
ff
04
0f
05
00
01
00
fd
fb
fe
02
fd
fe
04
00
02
00
02
00
01
04
ff
00
00
fe
01
03
04
02
02
03
03
08
07
05
06
02
02
05
00
00
03
00
02
05
03
fd
00
ff
ff
fb
00
00
fd
ff
ff
fd
fd
00
fe
00
fe
01
00
01
00
01
fb
fe
ff
fe
00
02
00
02
02
01
02
02
ff
00
fe
02
00
02
01
03
03
00
00
01
ff
fd
fe
00
fc
ff
fe
02
fe
00
04
01
ff
00
00
07
07
02
04
03
03
02
00
ff
00
fb
00
fe
fb
00
00
00
01
03
02
01
ff
00
00
03
02
06
fd
00
00
ff
fe
ff
ff
ff
ff
ff
01
01
04
08
02
01
03
00
00
ff
03
00
ff
00
02
01
ff
07
0a
02
03
06
01
04
01
03
fe
fc
00
05
00
01
ff
fe
03
01
00
01
00
00
01
ff
ff
00
fe
fd
01
02
01
02
01
01
00
00
00
00
fe
00
ff
00
01
02
04
03
fe
06
02
00
02
ff
00
ff
00
02
01
fe
fe
01
fe
ff
fe
00
00
fb
fd
00
ff
03
02
ff
ff
ff
fd
01
01
ff
ff
02
00
ff
01
00
02
02
02
02
03
ff
02
01
fd
04
fe
fb
fd
fe
00
00
00
02
02
02
fe
fe
02
07
02
01
fc
fd
fc
ff
fe
fe
fe
fe
00
02
04
02
00
fb
ff
07
00
01
00
ff
fe
00
ff
fe
01
00
fe
00
00
00
ff
04
03
00
ff
00
00
01
ff
ff
00
00
02
00
02
02
00
02
02
ff
00
ff
ff
ff
ff
ff
ff
00
02
00
00
00
00
fe
ff
00
00
01
ff
04
00
02
01
00
00
ff
00
02
03
00
00
00
f9
fb
02
fe
02
ff
ff
00
00
fe
00
00
fd
02
01
fd
01
fe
00
fe
03
00
ff
00
01
01
ff
00
02
ff
02
00
02
ff
00
ff
ff
00
00
00
fc
ff
fd
ff
ff
fd
ff
fe
fd
ff
ff
02
02
00
04
02
00
ff
03
00
01
ff
00
00
00
01
ff
01
04
03
02
04
04
03
fe
ff
01
ff
ff
fe
01
04
00
fe
02
00
00
ff
fd
fe
00
02
00
01
ff
01
fd
00
00
00
ff
ff
00
03
00
00
03
fe
fe
fe
00
02
02
00
02
fe
00
02
01
00
ff
fe
ff
fe
01
00
ff
00
00
fe
01
02
04
ff
03
03
fe
00
fc
fd
00
00
fd
ff
02
fe
00
fe
00
00
00
00
00
ff
00
01
fe
01
ff
00
02
02
00
00
ff
fe
00
00
01
01
01
00
01
01
00
00
00
ff
00
ff
fe
00
01
00
01
00
fe
05
04
04
05
01
04
01
03
00
01
02
00
03
00
01
00
fd
03
02
02
03
00
fd
00
00
fc
fc
00
00
fc
00
02
fb
00
04
00
01
ff
fc
ff
03
01
03
00
01
00
02
03
00
00
00
00
04
04
01
00
02
00
00
fe
00
00
04
02
03
04
01
00
fd
01
06
07
00
02
02
fd
00
fd
00
fd
fc
fe
00
f8
fb
00
fc
fe
ff
00
ff
00
ff
01
00
02
ff
00
00
fe
fc
ff
fc
ff
01
01
07
06
05
02
04
00
00
ff
01
fb
fd
fe
fc
fe
fe
fd
fe
ff
ff
01
fd
01
00
fd
01
01
00
01
02
ff
02
07
00
00
ff
fd
ff
01
00
04
ff
00
03
00
ff
ff
00
00
fd
fe
ff
ff
fd
00
08
ff
03
02
f8
00
02
fd
02
00
fe
00
01
01
01
fe
00
00
00
00
00
01
05
02
03
05
06
fe
fd
fe
00
00
fe
01
00
fe
fb
06
ff
04
08
ff
02
00
02
02
01
00
00
01
00
00
fe
fe
00
fb
00
01
fe
00
00
fe
03
fe
fe
00
01
fe
00
01
fe
01
02
00
01
00
00
00
00
00
ff
fe
fc
ff
ff
fd
01
02
01
00
00
02
00
00
01
01
fe
ff
fe
00
02
00
fd
fe
fd
fe
ff
fe
fb
fb
fd
fa
f9
fd
fd
f9
fc
01
fe
05
fc
fc
03
00
fe
02
00
00
00
01
00
00
fd
00
fe
02
01
00
ff
00
fc
00
00
ff
fe
01
00
01
09
03
fe
00
ff
00
fe
01
00
02
00
00
fb
ff
fc
fe
00
fe
fe
00
00
00
ff
02
00
fc
fe
02
fe
00
fd
fd
00
00
fe
00
00
ff
ff
00
fd
fd
01
02
ff
00
ff
00
02
01
02
04
00
ff
05
00
02
01
00
00
0a
00
02
0c
03
01
03
00
00
05
02
02
05
03
00
ff
00
ff
01
ff
01
00
01
01
fd
02
00
00
01
00
02
02
01
00
03
02
00
00
01
fd
01
00
02
03
01
00
fe
00
ff
ff
00
ff
02
fe
fd
01
ff
ff
01
01
fe
00
03
00
02
fe
fb
fd
00
fd
fe
f8
f8
fd
fd
fd
fd
00
01
01
00
00
02
00
02
03
01
fe
00
03
01
02
00
00
01
ff
00
02
fe
00
ff
04
01
fe
fd
00
02
fc
ff
00
00
00
ff
00
ff
fe
01
fe
ff
ff
ff
ff
fe
fd
ff
00
fd
00
00
00
00
01
00
02
02
00
01
00
fc
fd
00
fd
ff
00
ff
04
fb
fc
fd
fe
00
00
00
02
01
00
02
fe
fe
00
00
00
00
01
00
02
03
02
fe
ff
fd
ff
fe
04
04
ff
00
fe
00
03
ff
00
00
ff
fd
00
01
fd
00
00
01
fe
01
fe
00
fd
fc
04
ff
00
00
00
ff
03
ff
03
00
01
03
02
02
fe
fd
00
03
ff
fd
02
ff
fc
00
ff
01
01
00
fb
01
fd
fe
fc
ff
fe
fe
00
04
00
fe
05
00
ff
01
00
01
00
01
ff
03
00
03
00
02
04
01
00
00
00
01
00
ff
01
ff
fd
01
02
01
01
03
01
02
ff
fb
fc
03
02
00
00
fe
01
ff
01
00
02
00
00
02
01
01
01
fe
03
01
01
fd
00
01
03
ff
05
00
00
00
ff
01
00
02
01
00
00
03
ff
00
00
00
00
ff
fe
fb
00
04
00
fc
fe
fa
00
00
00
fe
00
00
fd
ff
02
00
00
ff
00
03
fd
fb
fe
fc
03
02
00
02
02
00
02
04
ff
01
ff
00
fe
00
01
00
00
ff
fe
01
ff
fe
00
00
ff
02
01
fe
ff
ff
fe
fd
fe
ff
fd
fe
fe
fe
00
00
01
01
01
ff
ff
fe
00
00
00
fe
fe
00
00
ff
06
fc
02
00
fb
02
03
ff
00
03
00
02
00
00
ff
00
00
00
00
ff
00
00
00
00
ff
fe
00
ff
fe
01
00
ff
fc
00
fe
ff
fe
fc
00
f9
f8
fd
fe
03
00
ff
fa
06
fc
fc
01
03
00
01
fe
fb
00
fe
00
01
fc
00
00
fe
fe
ff
00
00
00
00
02
00
03
fd
00
01
fe
01
00
02
01
02
00
00
ff
02
00
00
fe
00
00
fe
01
00
fe
01
01
01
00
03
ff
fe
00
00
00
00
02
00
02
03
02
02
02
00
01
03
ff
03
f9
00
ff
00
fd
04
04
00
00
fe
00
00
00
04
03
00
00
ff
00
01
00
fe
00
ff
01
01
01
fa
01
00
ff
00
01
01
03
00
03
00
00
07
ff
01
02
00
00
02
00
ff
fd
fc
00
00
00
00
00
fe
00
fd
00
02
00
00
fe
fd
00
01
fd
03
00
ff
00
00
fe
04
fe
00
01
ff
fe
03
ff
00
00
fe
00
ff
00
01
ff
04
03
02
03
07
05
02
04
01
02
05
ff
03
09
02
01
04
01
01
04
03
03
01
01
ff
00
ff
01
ff
00
01
05
fd
fe
02
fd
fb
f6
02
fd
f5
fe
00
fc
00
fe
00
04
00
00
01
02
00
ff
04
02
02
02
00
01
05
00
02
ff
00
01
00
01
00
00
fd
04
01
00
04
00
fe
03
00
ff
01
03
fc
fa
fe
00
ff
01
ff
00
00
00
fe
fe
fe
ff
02
fd
00
06
00
00
04
05
05
04
05
03
fb
00
02
00
00
03
fe
ff
fe
05
01
ff
00
00
fb
00
fc
01
02
02
01
02
00
00
03
03
02
03
00
00
00
00
03
00
01
00
fe
02
00
00
00
ff
ff
02
00
04
00
05
01
ff
01
03
02
00
01
00
fd
00
ff
fe
00
00
ff
02
fe
fe
02
ff
ff
fc
fc
00
00
ff
00
ff
02
ff
00
02
ff
02
04
01
04
04
01
03
03
00
03
06
04
04
00
04
fe
fd
ff
06
ff
04
00
fc
02
03
03
05
fe
00
ff
00
fd
ff
00
01
02
02
ff
ff
fe
01
02
00
00
fe
00
00
ff
01
fe
00
ff
03
00
fe
00
02
00
01
00
04
01
03
f9
ff
fd
fd
03
00
fe
00
fc
fd
ff
00
fe
02
fe
ff
00
00
04
01
02
01
02
02
00
00
fe
04
04
04
ff
00
00
01
02
00
01
fd
ff
ff
f8
fd
00
fd
ff
fe
fe
00
01
fe
fe
fd
ff
00
01
ff
00
ff
00
03
02
01
01
02
05
01
03
02
00
03
02
02
00
00
00
fd
02
ff
01
00
00
fd
00
fe
00
00
00
ff
00
00
00
06
04
02
00
03
ff
01
00
fe
fd
ff
00
00
fe
00
01
01
01
00
00
ff
01
00
00
00
fe
fd
01
00
fc
fc
ff
ff
01
ff
03
03
04
02
01
fb
01
03
01
00
04
04
fe
fe
00
04
01
00
00
00
ff
00
01
ff
ff
01
00
00
fe
00
fe
03
01
fc
01
ff
fe
fd
ff
fe
ff
ff
fd
01
01
00
02
ff
00
08
00
00
02
00
02
01
01
00
00
ff
01
ff
ff
01
01
01
02
ff
00
02
00
00
02
ff
ff
00
fe
00
00
ff
00
01
02
00
00
01
fe
ff
ff
ff
02
00
00
01
fe
00
00
00
00
00
00
00
01
00
01
01
ff
01
fe
00
ff
fe
00
ff
ff
01
ff
00
00
00
ff
00
00
02
ff
00
01
01
00
ff
00
00
00
00
ff
02
01
01
ff
ff
02
01
00
00
00
ff
ff
fe
01
01
ff
01
ff
ff
01
00
fc
01
ff
00
00
ff
ff
01
00
fe
00
01
00
02
00
00
02
00
fe
02
00
ff
00
00
00
00
00
ff
00
00
fe
00
ff
01
ff
ff
00
00
fe
00
01
00
00
00
00
00
ff
00
01
00
00
00
00
00
01
01
01
ff
00
ff
fb
00
03
ff
00
fe
01
00
00
05
03
00
00
01
00
ff
01
01
0d
f1
f7
05
f7
fc
04
f7
fb
01
00
01
ff
ff
00
ff
fe
00
00
02
01
01
ff
00
ff
01
00
00
02
00
00
00
01
00
ff
01
00
00
ff
01
01
00
ff
fd
02
01
fe
00
ff
00
01
00
00
02
01
00
00
01
00
01
01
00
ff
01
fe
fe
00
00
fe
00
ff
00
01
00
ff
00
ff
00
00
ff
ff
fd
00
01
00
02
00
02
00
02
ff
00
00
03
00
ff
03
01
00
01
00
01
01
ff
ff
00
01
00
00
fe
00
00
00
01
03
00
01
03
00
00
00
00
00
ff
ff
00
00
00
00
02
02
01
04
03
04
00
00
00
01
00
00
00
00
00
fe
00
00
01
fd
00
00
00
ff
00
01
00
00
ff
00
00
00
01
fc
00
ff
01
ff
ff
00
fe
01
00
00
00
02
01
00
ff
00
02
08
00
ff
02
fe
00
00
00
00
01
00
02
00
00
ff
02
01
00
06
fd
00
ff
ff
01
03
00
00
01
00
ff
00
ff
01
fc
00
ff
01
ff
00
fe
00
00
01
00
00
00
fd
ff
fc
01
00
00
00
fe
00
00
00
00
00
ff
00
02
00
fa
00
ff
fb
01
01
f9
fe
00
02
fe
ff
ff
ff
00
ff
01
00
00
00
00
01
ff
ff
00
00
00
00
02
02
fe
00
02
fe
ff
00
00
ff
01
00
ff
00
01
01
ff
06
00
fe
00
00
00
03
01
00
fe
fd
ff
00
00
ff
00
01
01
00
fd
00
00
00
00
03
01
01
02
ff
00
02
fd
00
00
ff
00
01
ff
01
00
ff
ff
02
02
00
ff
00
00
00
00
01
ff
02
ff
ff
00
03
ff
ff
01
ff
00
01
00
00
00
02
00
00
00
01
ff
00
00
00
ff
00
ff
ff
ff
02
00
02
01
00
01
00
00
01
02
ff
00
00
01
00
ff
00
ff
00
fc
02
00
ff
01
ff
00
00
03
01
00
00
00
01
ff
00
00
01
00
00
02
00
00
02
ff
00
00
00
fc
ff
02
ff
fe
00
00
01
00
00
01
00
ff
02
00
00
01
01
00
fe
00
02
00
00
00
00
00
00
ff
00
00
ff
02
00
01
00
fe
00
fd
fe
ff
00
00
00
0d
fc
fc
01
fd
ff
03
fe
01
00
fd
00
00
00
03
00
fe
00
00
ff
01
00
ff
ff
00
00
fd
01
00
ff
ff
00
00
fe
00
00
00
ff
00
00
01
01
00
ff
ff
00
00
00
ff
ff
00
ff
00
01
00
ff
00
00
01
ff
00
ff
01
01
ff
00
ff
00
fe
fc
fe
ff
00
00
00
ff
01
00
00
00
00
00
01
ff
ff
ff
ff
00
00
ff
00
ff
00
00
ff
00
ff
00
ff
00
00
00
fe
ff
01
ff
00
01
04
00
01
01
00
00
02
00
00
00
01
00
00
00
00
01
01
01
00
00
00
00
ff
01
fe
01
00
07
03
00
fe
00
01
02
00
ff
00
01
00
00
00
00
00
00
02
ff
00
01
fd
02
01
ff
00
03
00
00
ff
00
00
01
00
00
00
01
00
00
00
ff
00
01
00
00
02
00
fe
00
ff
00
02
00
00
fc
ff
ff
03
fe
00
00
ff
00
02
fd
fd
01
fe
00
fe
fd
fd
fe
01
00
01
00
00
00
02
01
fd
fd
fe
fe
00
01
00
00
01
fe
01
00
00
ff
fe
01
01
00
01
00
ff
01
00
ff
00
00
00
03
03
02
01
ff
00
00
00
02
ff
00
00
fe
00
00
00
00
00
fe
fe
00
fe
fe
00
00
01
ff
ff
ff
00
ff
ff
00
fe
fe
00
ff
00
00
fe
fe
fd
01
00
00
00
01
fe
ff
01
00
01
02
00
00
00
00
01
02
01
02
00
00
fe
fe
fd
01
01
ff
00
01
00
01
01
fc
00
ff
01
00
ff
ff
fe
fe
00
00
00
fe
02
00
01
03
00
fd
01
ff
00
00
ff
00
03
00
00
00
fe
fe
00
02
00
01
00
00
01
01
00
00
02
00
06
02
00
03
fd
01
01
ff
fe
02
00
00
00
00
00
fe
ff
01
01
00
01
ff
00
00
00
fe
02
01
00
02
00
00
00
00
02
ff
ff
02
00
00
00
00
01
00
ff
00
ff
ff
00
01
02
00
ff
00
01
01
02
00
01
03
ff
00
00
02
00
fe
04
fe
01
01
fe
00
00
ff
00
ff
00
00
00
fe
00
00
ff
00
00
fe
03
fe
01
00
00
00
02
00
ff
00
00
00
00
fd
fe
ff
ff
01
00
fe
fe
00
fd
01
00
00
00
fe
02
02
00
00
01
00
fd
00
00
ff
fe
01
02
01
01
00
02
00
01
02
01
01
01
01
00
00
00
fe
02
00
ff
00
00
00
00
ff
01
ff
02
01
00
02
00
00
00
ff
01
01
00
00
fe
ff
00
ff
ff
fe
00
01
00
ff
00
00
00
ff
01
02
00
00
00
fe
00
01
fc
fd
01
00
00
00
00
00
ff
01
01
02
03
00
00
00
00
00
00
00
ff
00
01
00
fe
01
00
02
00
01
06
fd
ff
01
00
fd
02
ff
00
ff
01
00
ff
00
00
00
01
00
03
01
fe
ff
02
01
ff
01
01
00
00
01
ff
00
01
00
00
00
01
01
01
01
01
ff
00
00
fe
fe
ff
fe
00
00
00
01
03
01
08
02
00
01
fe
00
00
00
01
00
01
00
02
02
00
02
01
00
00
00
ff
01
00
00
ff
00
ff
02
fe
00
01
fc
ff
01
fe
ff
01
01
01
00
ff
00
00
ff
ff
01
00
00
ff
00
01
00
00
00
00
00
fe
00
ff
00
00
01
00
01
03
01
01
01
00
00
00
00
fc
00
00
00
02
ff
01
00
ff
02
fe
00
ff
00
01
ff
fe
ff
01
00
fd
01
01
01
00
00
00
f8
00
00
f6
02
01
ff
00
ff
00
fe
01
02
00
ff
00
01
00
02
fe
00
00
00
00
00
fe
01
ff
00
00
00
fe
ff
00
ff
ff
fe
00
ff
00
01
00
00
01
ff
fd
00
02
fe
00
00
ff
00
03
ff
ff
01
01
ff
00
00
ff
00
00
ff
01
00
00
00
00
00
00
00
ff
00
01
fb
00
00
ff
00
01
ff
01
00
01
ff
01
00
00
01
ff
00
00
00
00
00
ff
ff
00
00
00
02
fe
00
00
03
03
00
fa
fd
fe
fd
01
00
fe
ff
04
00
00
ff
fe
01
02
00
00
09
fc
ff
04
fc
ff
04
fe
fe
ff
01
01
ff
00
ff
00
01
00
00
00
00
ff
00
00
00
01
00
01
00
01
ff
01
00
00
00
01
00
ff
fe
01
00
02
00
00
ff
fe
fd
00
ff
00
ff
ff
00
01
02
fe
00
ff
00
00
00
fc
00
fe
00
fc
ff
00
fe
00
ff
00
fe
ff
00
ff
00
00
ff
02
01
00
00
00
00
00
00
01
00
00
02
02
00
fd
00
ff
ff
03
00
04
fd
fe
00
00
00
ff
00
01
00
00
01
01
ff
ff
ff
00
fd
00
02
01
00
00
ff
01
00
00
ff
01
00
00
01
00
01
ff
00
fd
00
01
fe
00
00
00
00
02
00
01
ff
01
ff
fe
00
00
00
03
ff
ff
03
00
01
00
ff
00
00
00
01
01
00
ff
00
00
00
02
01
ff
01
00
00
00
00
00
00
00
00
00
00
00
02
01
00
01
ff
00
00
00
00
00
00
00
ff
fe
00
ff
00
00
00
00
00
07
02
00
04
00
02
02
fe
00
01
fd
00
01
ff
fe
ff
fe
00
ff
00
ff
00
01
00
fd
01
00
02
fe
00
01
fe
01
01
01
00
00
00
01
01
fe
00
01
01
00
00
00
01
00
00
00
03
02
00
01
00
00
00
00
00
01
ff
00
00
ff
00
ff
00
01
00
00
01
01
01
00
00
00
02
00
01
00
0a
00
02
00
fd
04
ff
01
00
01
00
fe
fe
fc
fe
00
00
01
ff
00
00
ff
00
00
01
00
02
0d
ff
00
02
fd
00
02
fe
00
01
fe
01
00
00
03
00
00
ff
ff
02
00
fe
00
02
00
ff
ff
00
01
01
00
00
00
ff
00
02
fe
fe
00
fd
ff
02
00
00
00
02
00
ff
02
00
01
00
ff
ff
00
00
ff
00
ff
00
00
01
01
03
02
ff
01
00
ff
00
00
ff
ff
00
01
00
fe
ff
00
02
ff
fa
fd
00
ff
01
ff
fd
00
00
fd
fd
00
fc
ff
00
fe
00
02
00
00
02
00
fe
00
00
01
00
ff
ff
ff
01
fe
00
00
00
00
00
ff
00
fe
00
ff
00
02
01
fe
fe
fc
00
02
02
02
00
00
01
00
02
fe
ff
00
ff
fe
01
01
01
ff
00
00
00
00
02
00
01
00
02
00
02
01
01
00
00
05
ff
fd
00
fe
00
00
fd
00
fd
fe
00
00
ff
00
00
fe
fd
07
fe
00
00
fe
fe
00
00
00
00
00
00
00
ff
00
fe
01
00
01
01
ff
01
ff
00
01
ff
00
ff
01
00
00
01
ff
fe
01
ff
02
fd
fc
01
00
00
01
ff
00
01
00
00
00
ff
ff
00
01
00
f8
ff
00
ff
01
02
00
03
01
01
ff
00
00
ff
00
00
ff
01
fd
00
ff
ff
00
00
00
01
00
fe
00
00
00
00
fe
01
00
01
00
fe
00
ff
fd
00
00
00
ff
01
00
00
01
01
01
00
01
00
01
01
00
00
fe
01
00
01
00
00
01
00
00
ff
fe
ff
ff
00
00
01
ff
00
00
00
00
01
02
00
00
01
00
02
00
ff
00
00
ff
02
00
01
00
02
00
02
02
04
fe
fe
01
ff
02
01
00
01
fe
ff
00
fe
02
ff
00
01
00
01
00
ff
00
00
00
05
03
03
ff
01
02
00
01
01
fe
01
ff
07
fd
01
03
fb
02
01
fb
ff
02
00
ff
01
00
00
ff
00
00
ff
00
00
01
ff
ff
01
02
fe
00
01
00
00
01
01
00
00
02
00
fd
ff
00
00
00
ff
00
01
ff
ff
01
00
00
00
00
00
00
00
ff
ff
00
01
ff
00
00
ff
00
01
00
00
00
ff
00
00
00
03
01
fe
05
00
02
04
ff
ff
ff
00
01
fe
00
01
00
01
00
00
00
00
00
01
00
00
01
fe
ff
02
00
00
ff
00
ff
ff
00
ff
ff
ff
00
ff
00
00
00
01
00
00
01
00
00
fe
00
00
01
00
01
00
00
00
00
00
00
00
00
00
00
00
ff
00
00
00
00
00
00
00
00
01
00
01
00
00
00
ff
00
01
00
00
00
00
00
00
00
00
00
00
00
00
ff
ff
ff
00
00
00
ff
00
00
00
00
01
ff
01
00
ff
01
00
00
01
ff
00
00
00
00
00
01
00
00
00
00
00
00
00
01
00
00
00
ff
00
01
fd
ff
00
ff
00
00
01
00
00
00
ff
00
00
00
00
00
01
01
00
00
01
00
00
00
00
00
00
00
00
ff
00
00
00
00
00
01
01
00
ff
00
00
ff
02
01
02
00
ff
01
00
ff
00
00
01
00
ff
00
01
00
ff
01
00
00
00
00
00
00
00
00
00
00
00
00
00
ff
00
00
00
00
fe
00
00
00
00
ff
00
ff
ff
ff
fe
ff
00
00
00
00
00
00
01
00
01
ff
00
02
00
ff
01
00
ff
00
00
00
00
00
00
00
00
00
00
00
00
00
ff
00
00
00
00
00
00
00
00
00
ff
00
01
00
02
01
00
00
00
00
00
00
00
00
00
ff
01
00
ff
00
00
00
01
00
00
00
00
ff
ff
01
ff
00
01
fd
01
01
ff
00
01
00
00
00
ff
00
ff
00
00
00
00
00
00
00
00
00
01
01
02
03
ff
00
00
00
00
00
00
00
00
00
00
01
01
ff
ff
fe
02
00
01
01
01
01
00
00
00
00
00
00
00
00
00
00
00
ff
00
00
00
00
00
00
00
00
ff
00
00
00
00
00
00
00
00
00
01
02
00
00
00
01
00
00
01
01
00
01
00
02
01
00
00
ff
00
01
00
ff
01
00
fe
00
00
00
00
00
00
00
00
00
00
00
01
02
00
ff
00
01
ff
ff
00
00
00
01
00
ff
00
00
ff
ff
00
fe
00
ff
ff
01
00
ff
00
00
02
00
ff
00
01
00
00
00
00
00
00
00
02
01
ff
01
ff
fe
ff
00
ff
00
00
00
00
00
01
00
01
00
00
01
00
00
00
01
01
00
00
01
00
ff
01
00
00
00
ff
00
00
00
00
00
ff
00
00
00
00
00
00
00
00
00
00
00
ff
00
00
00
00
00
ff
00
00
00
00
00
00
01
01
01
00
ff
02
00
00
00
00
00
00
fe
fe
01
00
00
00
01
ff
00
00
00
00
00
00
01
ff
00
00
00
00
00
00
ff
00
00
ff
00
ff
00
01
fd
00
01
00
ff
ff
ff
00
00
00
00
00
01
00
00
00
00
01
fe
ff
02
ff
ff
00
ff
01
00
00
ff
00
01
ff
00
00
ff
00
00
00
ff
00
00
00
00
00
00
00
00
ff
00
ff
00
00
00
00
00
00
00
00
00
00
01
01
00
ff
01
fe
00
00
ff
00
ff
00
00
ff
00
00
00
ff
00
00
00
ff
01
00
00
00
ff
00
ff
ff
00
00
00
00
ff
00
01
00
00
00
00
00
00
01
00
00
00
00
ff
00
00
00
ff
00
ff
ff
00
ff
00
00
00
00
00
ff
01
00
ff
00
00
00
ff
00
00
02
00
00
00
02
00
00
01
fe
00
00
00
00
00
00
00
00
00
01
01
03
01
01
00
00
00
01
00
00
ff
00
00
ff
00
00
00
00
00
00
ff
00
ff
00
00
00
00
00
00
00
00
00
00
00
00
ff
00
00
ff
00
00
00
00
01
01
00
01
02
00
00
00
00
fe
00
00
fe
00
00
01
00
00
01
00
00
00
01
00
00
01
00
00
00
00
ff
ff
00
00
00
00
00
00
00
00
00
00
00
00
00
01
01
00
00
fe
00
00
00
00
00
ff
00
ff
00
00
ff
00
00
00
00
01
ff
00
00
00
00
00
00
00
01
00
00
00
00
ff
00
00
00
00
00
00
ff
00
01
00
00
00
ff
00
00
00
00
00
01
00
00
00
00
00
00
ff
00
ff
00
00
00
01
00
02
01
01
00
03
03
00
00
01
01
00
fe
00
ff
fe
00
00
ff
00
01
00
00
00
00
00
00
00
01
00
00
00
01
01
00
01
00
00
00
00
00
fc
fc
00
00
ff
00
00
00
00
00
ff
00
00
00
00
00
01
00
00
00
00
00
ff
00
00
00
00
00
00
00
00
00
00
00
00
00
00
ff
ff
00
00
ff
00
ff
00
ff
ff
01
00
ff
00
01
00
00
00
01
00
00
00
00
00
00
00
01
00
01
00
00
01
00
00
00
00
ff
00
ff
00
00
00
00
00
00
00
00
00
00
00
01
ff
ff
02
01
00
00
01
01
00
00
01
00
00
00
00
01
00
00
00
ff
00
00
ff
00
ff
00
ff
00
00
01
00
00
00
00
00
00
00
01
00
00
00
fe
fd
00
00
ff
ff
00
ff
00
02
01
00
01
00
00
ff
00
ff
00
00
00
00
00
01
01
01
00
00
01
00
00
00
00
00
00
01
ff
ff
00
ff
ff
00
00
00
00
00
00
00
00
00
ff
00
00
01
ff
00
00
01
00
01
00
00
00
ff
00
00
00
00
00
00
ff
00
01
00
00
00
00
ff
02
00
00
00
ff
00
00
00
00
00
00
00
ff
00
00
00
00
00
01
02
00
ff
00
01
00
ff
00
00
00
00
00
01
00
00
01
01
00
00
01
ff
00
01
00
00
01
01
00
00
01
01
ff
00
01
00
00
ff
00
00
fe
00
02
00
00
00
00
01
00
00
00
00
00
01
00
01
00
00
00
00
ff
ff
00
00
00
00
00
01
00
00
00
00
01
01
00
00
00
00
00
01
00
ff
00
00
00
03
00
00
01
00
00
00
00
01
00
00
00
ff
ff
03
02
00
00
00
01
00
00
00
00
00
00
00
00
00
01
00
00
00
01
00
00
ff
00
00
00
00
02
01
02
ff
ff
01
ff
00
00
00
ff
00
00
00
00
00
fe
00
00
00
00
00
00
00
ff
00
00
00
ff
ff
00
ff
01
00
00
00
00
00
00
00
00
00
00
00
01
00
00
00
ff
00
00
00
00
00
00
01
01
ff
00
01
00
00
01
ff
00
00
ff
ff
01
00
ff
00
00
01
00
00
00
00
00
00
00
00
00
00
00
00
00
ff
00
00
01
00
01
00
00
00
00
ff
00
00
ff
00
00
ff
01
01
00
00
00
00
00
00
00
ff
00
00
00
00
00
00
00
ff
00
00
00
00
01
00
00
01
02
00
00
00
00
00
00
00
00
01
ff
00
00
00
01
00
00
00
00
ff
ff
00
00
00
01
00
01
00
00
00
00
00
00
00
00
fe
00
01
00
00
00
00
00
00
00
00
01
ff
00
00
00
00
01
ff
00
02
00
00
02
ff
00
00
00
00
00
00
00
00
00
00
ff
01
ff
ff
00
00
01
01
01
01
ff
02
00
00
00
00
00
00
00
ff
00
00
00
00
00
ff
00
ff
00
00
00
00
00
01
01
01
01
00
00
01
01
00
01
00
00
00
00
00
00
00
00
00
00
00
00
01
00
ff
00
00
ff
00
ff
01
00
fe
00
00
ff
00
00
01
01
fe
00
01
00
00
00
02
01
00
00
ff
00
00
00
ff
00
01
01
ff
00
01
00
00
00
01
01
00
00
00
00
00
00
00
00
00
00
00
00
00
00
00
00
00
ff
ff
00
00
fe
00
00
00
00
00
00
00
ff
ff
00
ff
00
fe
00
00
ff
00
01
00
ff
00
01
00
00
00
00
00
01
00
00
02
01
00
02
00
01
00
00
00
00
00
00
ff
00
00
00
00
00
00
00
00
00
01
00
ff
00
01
00
ff
00
ff
fe
00
00
00
00
00
ff
ff
00
00
ff
00
00
01
00
01
00
00
00
ff
00
ff
00
01
00
ff
00
00
ff
00
00
00
01
00
ff
00
01
00
00
00
01
ff
00
00
00
00
00
00
00
ff
01
01
00
01
02
00
00
00
00
00
00
00
ff
00
00
00
ff
00
00
00
00
ff
ff
00
ff
00
00
00
00
00
ff
fe
00
00
00
00
00
ff
00
00
00
00
00
00
00
00
ff
00
00
00
00
00
00
00
00
00
ff
00
00
00
00
00
00
fd
00
00
00
ff
00
01
00
ff
02
02
ff
00
00
00
00
00
00
00
00
00
00
00
00
00
00
00
00
00
ff
00
00
00
00
00
00
00
01
00
00
01
00
00
00
00
01
01
00
ff
00
00
00
ff
00
00
00
ff
ff
00
00
ff
00
00
00
00
00
00
00
00
00
00
00
00
00
01
00
ff
00
00
00
01
00
02
00
ff
ff
01
00
ff
00
01
00
00
00
00
ff
ff
00
00
ff
00
00
00
ff
00
00
00
00
00
ff
00
00
00
01
00
00
00
01
00
ff
00
00
00
ff
00
00
00
00
01
00
00
01
00
00
01
00
ff
00
00
01
00
00
00
00
fe
01
00
fd
00
02
00
01
00
03
04
00
00
fe
ff
00
00
00
00
00
00
00
00
00
00
00
00
01
00
00
00
00
00
00
00
00
ff
00
01
00
00
00
00
00
00
03
01
00
00
01
00
00
00
00
00
01
00
fe
ff
00
00
00
01
00
01
00
00
ff
00
00
00
01
00
01
00
ff
00
00
00
00
00
01
00
00
00
00
00
00
00
01
02
02
00
ff
00
00
00
ff
00
00
00
00
00
ff
00
00
00
00
00
ff
00
ff
ff
00
00
00
00
01
01
00
00
ff
00
00
00
00
01
03
01
00
00
01
00
ff
00
00
01
01
00
01
00
01
00
00
ff
00
00
ff
ff
01
02
00
02
00
00
00
00
00
00
01
00
00
00
00
00
00
00
ff
00
00
00
00
ff
00
00
00
00
ff
ff
00
02
00
ff
00
00
00
00
00
00
00
00
00
00
00
00
00
00
00
00
00
00
00
02
00
00
00
ff
00
00
00
00
00
00
00
00
ff
00
00
01
00
01
00
00
00
00
00
02
00
ff
01
00
00
00
00
01
00
01
ff
ff
01
00
00
00
00
00
ff
00
00
ff
00
00
00
00
00
00
00
00
00
ff
00
ff
00
00
00
ff
00
00
00
00
ff
01
01
01
fe
00
00
ff
00
00
ff
ff
00
00
ff
00
00
01
00
00
00
00
00
00
00
00
00
ff
00
01
00
00
00
00
ff
00
00
00
01
00
00
00
00
00
01
01
00
00
00
00
ff
00
ff
fe
00
ff
00
00
00
00
00
00
ff
00
00
00
00
ff
00
00
00
ff
00
00
00
00
01
00
00
00
ff
00
00
00
00
00
00
01
00
00
00
01
00
00
00
00
00
00
00
00
00
00
00
00
ff
00
00
00
00
00
00
00
00
00
ff
00
00
01
00
ff
00
00
00
00
00
00
00
00
00
00
00
00
00
00
00
01
01
01
00
00
01
00
00
fe
ff
ff
ff
00
00
00
00
00
00
ff
ff
00
00
00
00
00
00
00
00
00
ff
ff
00
00
ff
00
00
ff
01
ff
00
01
00
00
ff
ff
00
00
01
00
00
00
00
00
00
01
ff
00
ff
ff
01
ff
00
00
01
ff
fe
00
00
fe
00
00
fe
00
ff
00
01
00
01
01
00
00
01
fe
00
00
01
01
01
ff
ff
01
00
00
ff
01
02
00
00
01
01
ff
02
01
00
ff
00
00
00
00
02
00
00
00
00
00
01
00
ff
00
01
00
00
01
01
00
00
01
00
01
00
ff
01
00
00
00
00
00
00
01
00
fe
00
00
ff
00
ff
00
ff
00
ff
02
ff
00
02
ff
01
00
02
00
00
00
fe
00
00
00
00
01
ff
ff
01
ff
ff
00
01
00
01
00
02
01
ff
02
00
ff
00
ff
00
00
00
00
03
ff
01
00
00
00
ff
00
00
00
ff
02
fe
00
ff
00
ff
01
fd
02
01
00
02
00
00
00
01
ff
00
02
01
ff
00
00
ff
ff
00
00
01
01
00
01
00
00
00
ff
00
fd
00
ff
fd
05
ff
fc
00
00
01
01
00
00
ff
ff
00
00
00
00
00
ff
00
fe
02
01
01
02
00
ff
00
02
00
00
00
02
ff
ff
fe
fe
ff
00
01
00
fe
03
ff
00
02
00
01
00
00
00
fe
00
ff
01
ff
00
00
00
00
00
00
00
00
02
03
00
01
01
00
00
00
01
00
00
00
00
00
00
ff
fe
00
00
00
00
00
01
ff
00
fe
ff
00
01
fe
ff
00
ff
ff
00
00
00
00
02
00
00
00
01
02
00
02
00
00
00
00
01
01
00
00
01
01
01
ff
00
00
00
00
ff
00
ff
00
01
fc
00
01
ff
ff
00
ff
ff
00
ff
00
ff
00
fe
01
ff
fe
00
00
01
00
00
ff
fe
fd
00
fd
ff
fd
ff
01
fe
00
ff
00
fd
ff
01
ff
00
ff
00
00
00
00
00
00
00
01
ff
00
00
00
ff
02
00
fe
00
ff
fd
00
01
ff
ff
fc
fc
fd
00
fc
00
fe
fd
00
00
01
00
00
00
00
00
00
02
ff
00
00
01
00
00
ff
00
00
ff
02
ff
fe
00
00
00
01
01
ff
01
ff
ff
ff
ff
01
01
01
00
03
00
00
05
02
01
05
03
00
00
ff
ff
ff
ff
00
00
ff
00
01
01
ff
01
00
00
ff
00
00
00
00
ff
00
fe
00
01
00
00
01
00
ff
00
00
00
00
01
ff
00
00
00
fe
00
ff
fd
00
02
00
00
01
00
00
00
00
00
00
ff
01
00
00
00
00
00
01
fe
00
00
fe
01
03
ff
00
00
00
00
ff
ff
ff
00
00
ff
01
00
02
00
ff
00
00
02
01
00
00
00
01
00
00
00
00
00
02
00
00
ff
00
fe
00
01
ff
fe
fe
01
00
00
ff
00
01
00
ff
00
ff
00
ff
00
fe
00
00
00
01
00
ff
00
00
01
00
01
01
00
00
00
01
01
00
00
ff
fe
01
01
00
01
02
00
01
ff
ff
01
00
01
00
01
fe
00
00
01
00
ff
01
00
00
00
00
fe
02
02
00
00
00
02
01
00
01
00
ff
00
00
00
00
00
00
02
01
00
00
00
ff
ff
00
01
00
fe
ff
fe
ff
fe
fd
00
00
ff
fe
ff
fe
00
ff
00
01
01
00
00
ff
01
00
00
02
01
ff
00
ff
01
ff
01
00
00
ff
00
01
00
00
00
fe
01
fe
00
00
ff
01
00
02
ff
ff
ff
01
00
00
00
00
00
01
00
00
ff
00
00
00
00
01
ff
ff
ff
02
00
ff
ff
01
03
00
00
00
00
00
00
00
00
01
01
ff
fe
00
00
00
fe
00
ff
00
00
00
00
01
01
00
01
ff
00
01
01
00
ff
00
01
00
00
ff
00
01
ff
00
ff
ff
fe
ff
ff
ff
00
00
02
00
01
ff
00
00
01
00
00
00
00
00
02
01
02
02
02
01
00
01
00
ff
fe
00
00
ff
ff
01
00
02
01
00
00
01
00
fe
00
00
ff
00
00
00
ff
00
02
01
00
01
00
00
00
ff
00
00
01
ff
01
fd
01
00
00
00
00
00
00
fe
00
00
00
01
00
01
00
ff
00
fe
ff
00
fd
fd
fe
00
00
00
00
ff
01
00
00
02
00
00
01
ff
01
00
00
ff
ff
01
ff
02
02
01
00
01
fd
ff
00
ff
00
00
00
00
00
00
ff
00
00
01
ff
fe
00
01
00
ff
00
01
00
00
00
01
ff
fe
00
02
01
00
01
00
01
ff
ff
00
01
00
01
00
00
02
fe
00
ff
00
ff
00
00
01
ff
00
00
01
00
01
02
00
00
00
ff
ff
ff
02
00
00
00
01
00
00
03
00
ff
01
02
fe
ff
ff
00
00
00
02
00
ff
ff
fe
00
00
01
01
ff
fe
00
00
ff
fd
01
00
00
00
00
00
01
00
ff
00
00
00
00
ff
ff
ff
fe
fe
00
00
ff
00
01
00
00
fd
ff
00
fe
ff
01
fe
00
00
01
01
02
00
00
00
01
00
00
ff
ff
fe
00
00
ff
fe
fe
00
01
ff
00
01
00
00
00
00
00
ff
ff
fe
00
ff
01
01
01
00
02
00
01
01
00
00
01
01
fe
ff
01
fe
ff
00
00
fc
ff
00
00
00
00
ff
01
01
00
00
01
ff
ff
00
00
ff
00
00
02
fe
00
00
fe
01
03
fe
00
01
02
01
00
ff
00
02
00
01
ff
ff
00
fd
02
00
ff
02
01
01
01
ff
00
01
00
00
00
00
00
00
ff
00
01
ff
00
00
00
00
00
ff
01
00
00
00
00
ff
00
00
00
00
fe
00
01
fe
00
00
01
00
01
00
01
00
00
01
00
02
00
00
01
00
00
02
02
01
00
00
00
00
01
01
02
02
00
00
fe
ff
ff
ff
01
fe
01
00
00
ff
00
ff
fe
00
00
fe
ff
01
01
00
00
ff
00
01
00
00
00
00
00
ff
00
01
00
00
02
00
02
00
00
00
00
01
00
00
01
ff
00
00
02
00
01
00
01
ff
00
00
00
fe
00
00
00
00
00
fe
00
00
01
01
ff
01
02
01
01
00
00
00
00
ff
01
ff
00
00
fd
00
01
00
01
00
fd
00
00
01
01
00
fe
00
01
00
00
02
00
00
01
00
01
01
01
00
01
00
00
ff
fe
00
00
01
ff
00
ff
00
00
02
00
fd
00
00
01
fe
00
ff
ff
ff
ff
00
00
00
00
00
01
00
01
ff
01
ff
ff
00
01
00
00
ff
00
02
00
01
ff
00
ff
fe
01
fd
fe
02
ff
00
00
00
ff
02
01
01
00
01
02
00
01
00
02
01
ff
00
fe
00
00
ff
ff
00
00
00
00
01
02
00
00
fe
01
00
00
00
ff
00
00
00
00
00
02
02
00
00
00
00
fe
00
01
ff
fd
fe
01
ff
ff
00
01
fe
03
00
ff
01
00
00
01
01
fe
00
ff
fe
fe
00
fe
fe
00
00
ff
03
00
00
00
01
01
00
01
01
01
00
01
00
01
01
00
00
00
01
fd
00
ff
ff
02
ff
ff
00
00
fe
01
ff
01
00
00
ff
01
00
00
00
ff
02
00
ff
00
00
fe
00
fe
01
00
00
00
01
01
00
ff
ff
fe
00
00
fe
01
ff
ff
00
00
ff
01
01
00
ff
00
ff
ff
ff
00
ff
fc
00
00
00
ff
fd
ff
fd
00
02
00
ff
01
04
fe
ff
02
00
fe
00
00
01
ff
fe
fe
01
00
fe
01
ff
fe
01
00
01
00
fe
00
00
ff
00
00
00
01
00
00
ff
ff
ff
01
00
01
00
fe
01
00
fd
01
ff
fe
02
00
00
00
00
00
00
00
00
00
00
00
00
00
01
00
fe
01
00
ff
01
fe
01
01
00
00
00
01
00
00
00
00
01
ff
00
02
02
01
ff
01
fe
00
01
00
00
00
ff
00
00
01
00
00
01
00
02
00
ff
00
01
00
01
ff
03
00
00
ff
01
00
01
01
ff
01
00
01
01
01
00
01
02
fe
00
01
00
00
ff
00
01
00
02
01
00
01
01
00
00
ff
01
01
00
00
01
ff
00
fd
fd
00
00
00
ff
00
00
00
fe
01
00
ff
00
00
00
00
00
01
ff
00
ff
00
00
01
00
02
00
ff
00
ff
ff
00
00
00
00
00
00
02
00
00
00
01
00
ff
01
01
00
01
01
00
02
01
01
01
01
00
00
00
00
02
00
00
01
01
00
00
00
fe
fc
00
00
ff
00
ff
00
00
00
ff
ff
ff
00
fe
fe
fe
ff
01
00
ff
ff
01
ff
00
ff
01
00
00
ff
00
00
ff
00
00
01
ff
00
00
01
00
ff
02
01
fe
00
00
00
00
00
00
00
00
04
00
00
fe
00
00
ff
00
ff
fe
00
00
01
00
00
01
00
00
00
ff
ff
00
00
01
00
00
00
00
ff
00
ff
00
ff
01
ff
fc
04
ff
ff
00
00
fc
00
00
00
ff
01
ff
00
00
00
00
01
01
00
fd
fd
00
ff
00
01
00
fe
00
01
00
00
00
02
01
00
fe
fe
00
ff
ff
ff
fe
ff
01
00
00
00
00
00
00
ff
00
00
02
00
ff
ff
00
00
02
01
ff
00
00
fd
01
02
ff
00
00
ff
00
ff
00
00
01
00
01
00
fe
00
00
00
01
ff
01
00
00
ff
ff
00
ff
ff
ff
01
ff
00
00
00
01
fe
01
00
00
01
00
00
03
00
00
00
01
ff
00
02
fe
ff
00
01
00
00
fe
ff
00
ff
ff
03
ff
00
00
02
00
fe
00
ff
00
ff
00
00
00
fe
00
00
ff
00
00
00
00
01
ff
00
fd
fe
00
00
00
00
00
00
00
01
00
00
ff
01
fe
fe
fe
ff
00
00
ff
fe
00
01
ff
01
ff
01
00
ff
ff
00
00
fe
ff
01
00
00
00
00
01
00
00
03
01
00
03
01
00
ff
ff
00
00
00
00
00
00
02
00
ff
00
01
01
01
01
ff
00
00
fe
01
ff
00
01
ff
ff
00
00
01
00
00
00
ff
02
01
00
00
00
00
ff
ff
01
00
02
01
00
00
ff
ff
00
ff
01
00
01
00
00
00
ff
ff
00
02
00
00
00
00
00
00
02
fe
00
02
ff
00
fe
01
ff
00
00
00
01
ff
00
02
00
00
00
ff
00
00
ff
ff
ff
00
00
fd
00
00
00
02
00
00
01
00
01
01
00
01
00
00
ff
00
00
00
01
01
ff
ff
01
ff
00
ff
00
01
01
00
ff
00
00
00
00
00
ff
00
fe
00
ff
00
00
02
02
01
00
00
00
01
ff
00
ff
01
00
00
ff
fe
00
01
00
01
01
00
00
00
ff
01
ff
ff
00
00
01
02
00
00
00
02
01
00
01
01
fd
01
02
02
ff
03
02
00
01
ff
00
fe
00
ff
00
00
02
fd
00
00
00
00
ff
ff
ff
00
00
ff
00
00
fe
00
ff
ff
00
00
01
01
01
01
fe
02
ff
00
00
00
00
00
ff
01
ff
01
00
00
02
00
ff
00
00
00
ff
00
00
ff
01
ff
00
02
ff
01
00
ff
00
01
01
02
01
00
00
ff
01
02
02
01
fd
00
00
fd
ff
ff
ff
00
ff
00
ff
ff
fd
00
00
ff
00
01
00
00
00
01
00
00
02
ff
01
00
01
00
00
ff
00
ff
00
00
00
ff
01
00
ff
ff
01
00
ff
02
03
00
01
00
ff
ff
ff
00
01
fe
fe
01
01
02
ff
00
fd
00
00
fe
02
ff
fd
00
03
fd
fa
ff
ff
fc
ff
00
fb
fd
00
fe
fd
fb
fd
fd
00
02
03
00
fe
01
ff
ff
ff
02
ff
00
01
fe
01
00
fe
01
fe
ff
01
02
03
05
ff
00
ff
02
fd
00
fd
fe
ff
01
fe
00
01
00
ff
00
fb
01
fb
f4
fc
00
f5
fe
ff
00
ff
ff
04
01
05
04
00
01
05
01
06
03
01
04
00
fe
01
04
02
00
ff
01
01
02
04
02
00
00
00
01
fe
ff
00
ff
02
00
ff
01
ff
01
ff
fe
fe
0b
04
04
06
00
02
04
01
00
ff
fb
fd
fc
f7
ff
fe
ff
00
ff
fd
00
00
ff
fe
01
01
02
ff
00
01
ff
00
00
00
00
ff
ff
fe
01
fd
fd
ff
00
00
00
00
03
00
00
00
00
01
02
00
03
00
ff
03
ff
02
00
02
02
01
00
01
fa
fc
fa
01
fd
00
01
02
00
fe
02
ff
00
00
00
02
01
ff
fe
00
ff
ff
fe
ff
00
fa
01
fa
f9
fc
fc
fb
00
03
ff
fc
02
ff
00
00
fe
00
fe
03
00
00
fe
fe
00
fd
00
00
ff
01
01
02
fe
00
01
fe
fe
ff
ff
00
01
fe
ff
ff
fe
fd
fa
ff
01
ff
ff
00
03
01
01
00
01
00
00
ff
ff
ff
01
05
03
02
02
06
03
05
04
00
ff
fe
02
01
01
01
01
03
03
04
02
04
01
fb
00
ff
ff
00
fd
fe
ff
01
fd
ff
fe
fd
01
00
ff
ff
01
ff
00
00
00
00
01
00
00
00
06
00
ff
01
00
ff
00
fe
00
01
fd
fe
fc
fd
01
06
01
02
00
fd
00
fc
fc
00
01
00
fe
ff
00
00
00
00
fc
fc
fc
fd
f7
fd
ff
fc
ff
fd
03
00
01
08
03
ff
00
00
fd
fb
ff
ff
00
02
fe
00
ff
04
03
04
00
fe
00
00
fe
01
06
02
01
04
ff
00
02
01
00
05
01
03
02
02
02
ff
00
00
00
00
00
00
fe
00
03
01
03
fc
fd
01
fa
00
00
ff
fc
00
03
04
00
01
04
02
01
00
02
02
03
02
00
ff
ff
02
00
01
00
fe
01
00
01
01
01
ff
01
02
03
02
ff
02
00
00
ff
ff
03
05
00
02
06
00
00
00
00
ff
00
fe
00
fd
fe
fd
fd
00
00
fc
fc
ff
00
fe
fd
00
fd
ff
04
fb
00
03
fc
fe
fb
fd
fe
fe
00
00
fb
00
02
03
02
06
09
05
04
00
ff
03
01
00
04
07
04
02
ff
00
04
00
fe
04
02
04
00
fe
03
fe
00
02
00
00
01
00
01
03
ff
ff
ff
01
00
01
00
fe
01
ff
00
ff
00
00
fe
02
01
01
ff
01
00
00
ff
ff
02
00
03
00
02
ff
00
fe
fe
00
01
00
00
fe
00
00
03
ff
00
fe
01
03
04
03
00
00
01
fe
00
00
00
00
02
00
00
00
fe
ff
00
ff
ff
ff
fa
fc
fe
ff
01
00
01
00
00
01
00
01
00
fe
01
ff
ff
00
03
00
01
00
fe
ff
00
02
ff
00
03
00
01
00
ff
00
fe
01
01
05
00
00
04
04
fd
00
fe
01
03
00
fe
00
00
00
01
00
03
00
ff
01
ff
01
03
03
02
00
02
00
fd
00
00
00
01
01
02
00
00
03
00
00
00
00
00
02
00
00
ff
00
00
00
00
02
01
ff
ff
00
03
00
00
00
02
00
01
fe
00
02
ff
fd
00
fe
00
02
00
02
03
fe
00
00
02
00
00
01
00
fe
02
00
00
00
00
02
00
ff
02
00
00
00
fe
01
ff
00
fd
fa
00
fd
fb
ff
ff
fe
01
02
02
ff
01
00
00
00
ff
ff
01
00
01
00
00
00
fd
fd
01
fd
00
00
ff
02
00
06
07
03
02
00
00
00
01
00
fe
ff
00
fd
fc
ff
fe
00
01
fc
ff
fd
00
05
ff
ff
00
00
01
00
ff
fe
fb
00
03
02
02
00
00
00
fd
00
ff
02
05
02
01
01
06
fe
fd
02
00
fd
07
00
00
02
fe
fe
fd
00
ff
00
02
00
00
07
09
06
00
04
ff
02
00
01
01
02
00
00
00
fd
00
03
ff
ff
02
00
00
00
00
ff
fe
00
00
00
02
00
02
01
fd
fe
fe
fd
02
00
00
00
00
ff
fe
fd
00
01
fe
00
00
01
00
fe
04
00
00
00
00
01
00
03
02
00
02
03
00
ff
01
00
03
08
00
06
05
01
03
ff
04
00
04
00
00
00
00
01
00
fd
fb
fd
00
00
fd
fc
ff
02
01
02
01
05
fe
00
02
00
01
00
00
00
00
01
04
fc
fe
03
00
fb
f9
fd
fb
fc
fb
00
fd
ff
00
04
ff
02
03
02
02
00
02
fc
fb
ff
ff
fc
fb
fe
00
00
00
00
00
00
00
00
00
fd
00
00
01
01
02
02
ff
00
00
00
04
07
07
05
0b
04
01
06
ff
03
00
02
03
05
05
02
01
01
00
02
00
00
fd
00
00
00
00
00
00
ff
00
01
fe
00
fc
00
00
01
00
01
01
ff
00
ff
fe
ff
01
ff
00
01
fd
f9
fc
00
04
06
01
04
08
02
03
03
00
01
00
ff
03
00
ff
00
fe
01
00
02
01
07
06
02
ff
00
fe
fd
03
fb
00
05
fc
fe
00
fd
02
00
00
00
fe
00
00
00
02
03
00
00
01
00
fe
00
00
00
07
01
04
fe
fd
00
04
00
03
fe
00
ff
ff
fd
00
fd
00
00
00
01
03
00
fe
ff
00
00
01
00
fe
01
01
00
02
02
01
01
00
01
fe
ff
02
00
00
fe
fc
00
fe
ff
00
03
00
ff
fe
00
01
02
ff
00
00
00
00
03
ff
ff
00
fc
01
ff
00
ff
00
00
ff
00
ff
00
ff
00
01
01
00
ff
00
fe
01
00
01
00
01
00
02
03
00
00
01
02
ff
00
01
01
00
00
00
04
04
00
01
02
fc
00
00
ff
01
00
01
01
01
00
fd
00
00
ff
01
ff
01
02
00
ff
02
00
fe
00
fe
00
04
06
0e
07
03
0d
05
03
05
03
01
01
ff
ff
ff
00
00
00
01
fb
fc
ff
fd
fc
01
ff
fd
fd
03
03
01
03
04
00
02
01
02
ff
ff
fe
01
00
01
00
02
02
00
fe
fd
00
fd
00
fe
01
ff
fa
fe
fa
ff
fe
fb
fe
00
fc
ff
00
00
00
00
00
00
01
ff
ff
00
ff
fe
00
fd
00
00
00
00
01
00
00
00
01
00
02
01
fd
02
03
fe
00
02
00
01
04
00
00
ff
01
02
ff
fd
02
01
fc
01
fe
01
02
01
ff
fe
00
00
fe
fe
03
00
fc
ff
00
ff
ff
fc
fc
04
00
fe
00
01
ff
02
00
fd
fb
fb
f9
fd
fe
00
fd
00
ff
fd
fe
fe
00
02
00
01
00
fe
00
00
ff
01
01
ff
04
05
03
03
06
02
ff
00
fe
ff
fe
ff
fe
fe
fd
ff
ff
fe
01
00
00
00
fe
00
00
ff
00
fc
fb
fa
ff
f7
fa
00
02
00
02
00
00
01
ff
ff
ff
ff
fb
01
00
02
fe
ff
ff
00
ff
ff
01
00
fd
01
02
fe
00
00
00
ff
01
ff
00
01
02
00
02
00
fe
fb
00
fe
fa
fe
00
00
ff
fc
fe
fc
02
07
00
fc
ff
fb
fe
03
00
00
00
00
01
01
01
01
00
00
02
02
00
ff
01
00
00
02
00
01
05
03
fe
02
00
01
01
02
01
ff
00
00
02
ff
fb
fc
00
00
fd
ff
fd
00
00
00
ff
00
fd
01
00
01
02
01
04
01
03
02
00
00
ff
01
00
02
01
01
01
03
00
00
00
00
00
01
00
ff
ff
00
01
ff
ff
00
01
00
fc
fa
fb
00
fc
00
00
00
01
00
ff
03
01
02
00
01
00
00
ff
fe
ff
ff
fc
00
fc
fd
00
ff
00
fe
ff
00
ff
fd
fb
fd
fc
f9
fc
fb
fe
00
01
fe
fe
fe
ff
00
01
00
00
00
03
ff
00
00
ff
ff
fc
00
fd
03
02
00
02
01
00
ff
00
00
fd
01
ff
01
00
00
00
00
03
00
02
00
00
02
ff
04
01
00
00
fe
fd
ff
fd
ff
00
03
ff
00
01
01
02
01
02
ff
01
fe
01
01
01
ff
00
fd
fd
ff
ff
fe
fe
06
00
00
00
04
01
ff
00
00
fe
ff
00
07
03
03
00
00
00
00
fd
fd
ff
fd
01
ff
ff
fe
01
00
00
01
00
00
00
fe
04
02
fd
02
00
00
02
fb
fe
fc
01
01
00
fd
00
ff
02
00
02
03
03
00
02
ff
00
00
02
00
00
00
01
00
00
00
00
04
03
04
00
00
03
03
01
03
ff
01
03
05
02
00
05
fd
fc
fd
fe
f8
fd
fb
fb
fd
fe
00
fd
fd
01
fe
fd
00
ff
fe
07
01
03
02
08
03
ff
05
00
fe
0b
fc
07
11
04
02
05
00
03
ff
fe
00
00
fd
01
00
ff
ff
00
00
fc
fe
00
fc
00
00
03
02
03
03
00
00
04
00
00
01
00
01
00
ff
04
02
02
01
00
01
01
02
00
03
ff
00
02
01
07
00
03
06
03
ff
05
00
00
00
fe
02
07
01
fe
ff
04
fe
ff
00
00
ff
00
02
fe
01
00
01
ff
00
fc
00
fb
ff
fa
00
fc
05
fd
fe
00
04
00
02
fb
fa
fd
01
00
02
00
04
00
fe
fe
01
fc
fb
ff
00
fc
01
00
ff
00
00
00
00
fa
00
ff
ff
03
00
00
02
03
00
02
00
00
02
fd
01
00
00
01
02
00
ff
ff
00
02
00
01
00
02
00
01
00
02
ff
f9
fe
00
fc
01
05
02
03
06
03
00
01
02
ff
fb
fb
fa
00
01
02
04
04
04
00
00
00
ff
00
00
00
00
00
02
04
01
03
00
01
03
02
03
ff
00
01
00
01
00
00
00
00
03
06
02
06
07
01
02
06
02
02
00
00
ff
fe
ff
00
02
00
f8
02
fc
00
05
00
00
01
fe
00
00
ff
03
04
01
00
fe
fe
03
04
00
04
05
01
02
00
ff
04
0a
04
01
04
01
01
00
00
fc
fd
01
00
00
00
01
05
01
fc
00
fe
fe
ff
ff
00
fe
00
00
fe
00
ff
fe
00
02
00
00
fe
02
01
00
03
01
04
02
00
05
00
05
fe
fe
00
03
03
02
00
01
ff
ff
05
00
ff
fb
00
ff
ff
02
00
ff
ff
01
ff
00
00
01
00
00
02
00
00
04
00
01
00
04
fd
fc
00
02
02
03
fa
f8
fb
fc
fc
fd
fd
fb
fe
00
fd
02
00
00
00
02
03
02
fa
fe
00
fa
00
fe
fc
fe
00
01
01
03
03
01
ff
02
02
00
fe
fd
00
ff
00
02
ff
04
02
00
fd
fe
00
00
fd
00
01
01
fc
03
fe
01
00
ff
ff
00
fd
01
02
02
00
02
04
00
00
02
fd
fd
00
ff
00
00
01
ff
00
fd
03
00
00
02
00
fc
00
ff
ff
09
01
ff
05
01
fe
04
01
ff
04
02
03
02
02
02
02
ff
00
02
01
ff
01
ff
ff
00
ff
00
01
fe
fe
01
ff
00
fe
00
01
fd
ff
01
fe
ff
00
01
ff
ff
00
ff
fe
f9
01
00
fe
01
00
00
00
02
01
00
00
01
00
00
ff
ff
ff
ff
ff
00
fe
00
00
02
00
00
01
00
ff
02
00
ff
00
ff
00
ff
01
01
00
00
02
00
01
00
00
00
00
01
01
00
00
00
00
00
ff
00
00
00
01
00
ff
00
00
00
00
00
00
ff
00
00
00
00
01
00
00
00
00
00
ff
00
00
00
01
01
02
00
00
00
ff
fd
00
ff
00
00
00
ff
01
00
00
00
00
00
01
ff
ff
fe
00
00
00
02
00
00
01
01
01
01
01
02
00
00
00
00
00
00
00
01
00
00
00
01
00
00
00
ff
00
00
00
00
01
00
ff
00
00
ff
00
00
01
00
ff
00
00
ff
00
00
01
ff
00
00
00
01
00
00
00
00
01
00
03
01
00
02
02
01
00
ff
00
00
00
00
01
03
00
00
01
01
00
00
00
00
00
ff
00
00
00
00
00
00
ff
00
00
00
ff
00
ff
00
00
00
00
00
ff
00
00
00
01
00
00
00
00
01
00
00
fe
ff
ff
00
ff
00
00
00
00
01
00
00
00
00
ff
00
00
00
ff
01
00
01
00
00
00
00
01
00
00
00
00
00
00
00
00
01
00
00
00
00
00
00
01
00
01
02
01
01
00
00
00
01
01
00
ff
00
ff
fe
fe
00
00
ff
ff
00
00
00
00
00
00
00
00
01
00
01
ff
00
01
00
00
00
00
00
00
00
01
00
00
00
01
01
01
ff
01
ff
01
00
00
ff
00
ff
00
ff
00
00
ff
01
00
ff
00
00
00
00
00
ff
01
00
00
ff
00
00
00
fd
ff
00
ff
00
00
ff
00
00
00
ff
00
01
00
00
00
00
00
00
ff
00
00
00
00
ff
ff
fe
fe
00
00
ff
00
00
00
00
00
01
01
01
00
00
00
01
01
fe
00
00
00
00
00
00
00
00
00
00
00
00
00
ff
ff
00
00
ff
00
00
01
00
ff
00
ff
00
00
00
00
01
00
01
00
ff
00
00
00
00
ff
ff
00
ff
00
00
00
00
00
02
fe
00
01
00
01
ff
01
00
00
00
ff
00
00
00
00
ff
00
ff
00
00
00
01
00
ff
ff
00
01
00
00
00
00
00
01
00
00
00
00
00
00
01
00
00
00
00
00
01
01
00
00
ff
03
02
00
01
01
00
01
00
00
00
00
00
00
01
00
00
ff
ff
ff
00
ff
ff
00
00
00
00
00
fe
ff
fe
02
02
01
01
00
00
00
00
01
fe
00
00
ff
ff
00
fe
fe
ff
ff
ff
00
00
ff
00
ff
00
ff
00
ff
00
02
01
00
00
00
ff
00
00
00
00
01
ff
00
ff
00
ff
00
00
00
00
00
00
00
00
00
00
00
00
fe
00
00
fe
00
00
00
fe
00
00
01
00
00
01
00
00
01
01
00
01
00
00
00
01
01
ff
00
00
00
00
01
00
00
00
01
00
00
00
00
00
02
00
00
00
00
01
00
00
00
00
02
01
00
00
00
00
00
00
01
00
00
01
00
fe
ff
ff
00
00
00
02
00
00
ff
00
00
00
00
00
00
00
ff
ff
00
ff
fe
00
00
00
00
00
00
00
00
ff
00
00
ff
ff
00
ff
00
00
00
00
ff
00
00
00
00
00
01
00
00
00
01
00
00
01
00
00
00
00
00
00
01
00
ff
00
00
00
00
ff
01
00
01
ff
ff
01
01
00
00
00
00
00
00
ff
00
00
00
01
01
01
00
ff
ff
ff
00
ff
00
01
00
00
00
00
01
00
00
01
00
01
00
00
00
01
00
00
00
00
00
ff
ff
00
fd
ff
ff
00
01
01
00
00
00
00
00
00
01
00
ff
fe
ff
00
ff
ff
ff
01
00
00
00
01
00
02
03
01
00
00
00
01
00
ff
00
00
00
ff
01
ff
01
01
00
01
01
01
00
ff
00
02
01
01
00
00
00
00
ff
00
ff
00
00
ff
ff
00
00
00
00
00
00
00
00
ff
ff
fe
ff
fe
01
ff
ff
ff
fe
00
ff
00
00
00
00
00
ff
00
00
ff
00
01
fe
00
00
ff
ff
ff
00
ff
00
01
00
ff
03
02
00
02
01
00
01
00
01
01
01
00
01
00
00
00
00
ff
ff
00
01
ff
00
00
00
ff
01
ff
ff
00
00
00
00
00
ff
01
ff
00
01
00
00
00
fe
ff
ff
00
00
00
00
00
00
01
00
01
00
00
ff
00
00
00
00
01
00
00
00
00
00
00
00
01
00
00
00
00
00
00
01
01
00
ff
00
00
00
00
00
01
00
ff
00
00
fd
fe
fe
00
fe
00
00
00
ff
00
fe
ff
00
00
ff
00
ff
00
fe
00
ff
00
00
ff
00
ff
00
00
00
00
00
00
00
00
ff
00
00
00
00
01
02
00
00
01
01
00
00
00
ff
00
ff
00
00
00
00
01
00
ff
00
ff
ff
ff
00
00
ff
01
00
00
00
00
ff
ff
00
00
ff
01
00
00
01
00
ff
00
00
00
00
00
00
ff
00
00
00
00
00
ff
00
01
ff
00
00
00
00
01
00
ff
01
00
01
00
ff
00
00
00
00
00
00
00
00
ff
00
01
00
ff
00
00
00
00
00
00
ff
ff
00
00
00
00
00
00
fe
ff
00
ff
01
00
00
00
00
00
00
00
00
01
ff
00
ff
00
ff
00
ff
00
00
00
00
00
00
01
00
00
00
00
00
00
00
00
ff
00
00
fe
00
00
00
00
01
00
01
ff
00
ff
00
00
01
02
01
01
00
00
00
00
00
00
00
01
00
00
00
00
01
00
00
ff
00
ff
ff
00
00
ff
00
00
ff
00
ff
ff
fe
ff
00
00
00
ff
00
00
00
00
00
00
00
ff
ff
ff
ff
ff
00
00
00
01
00
00
01
01
00
ff
00
fe
ff
00
ff
ff
fe
00
00
00
00
00
ff
ff
ff
00
00
00
00
00
01
00
00
00
00
ff
ff
00
01
01
00
00
01
00
00
00
00
00
ff
00
ff
00
01
ff
00
00
01
01
00
00
01
00
00
00
01
00
ff
00
00
00
01
01
01
00
ff
fe
00
00
00
00
01
00
00
ff
00
ff
00
00
01
00
01
01
00
ff
01
00
ff
ff
00
00
ff
00
00
00
00
00
00
00
00
00
00
00
00
00
ff
00
00
ff
00
00
ff
00
ff
ff
00
00
01
00
00
00
00
00
00
00
00
ff
00
00
00
01
01
00
00
00
00
00
00
00
00
00
ff
fe
00
00
00
00
ff
00
01
00
00
00
00
00
01
ff
00
ff
00
00
00
00
00
00
00
00
ff
01
01
00
00
00
00
01
00
00
00
00
03
00
00
00
00
01
00
00
01
01
01
00
00
00
00
ff
00
fe
ff
00
00
ff
ff
01
00
00
01
00
00
00
00
00
00
01
ff
01
00
01
00
00
00
00
ff
ff
00
00
00
01
ff
00
ff
01
00
ff
01
00
01
00
ff
00
01
ff
00
ff
00
00
01
00
00
00
00
00
00
00
00
ff
00
00
00
00
00
00
00
01
01
00
00
00
00
00
00
00
00
00
00
00
01
01
00
01
ff
00
00
01
01
00
00
ff
00
00
01
00
ff
00
00
ff
00
01
01
00
ff
02
00
00
02
ff
00
00
01
00
00
01
00
00
01
00
ff
00
00
01
00
ff
ff
00
00
01
01
00
ff
00
00
00
00
01
00
01
00
00
00
00
00
00
00
00
ff
00
00
00
01
01
01
03
03
00
01
00
01
00
00
00
01
01
00
ff
00
00
ff
fe
00
01
02
00
ff
01
00
00
02
01
00
00
01
ff
00
00
00
01
01
00
00
00
00
00
01
00
00
ff
00
01
00
01
00
00
00
00
01
00
00
00
00
00
01
00
fe
ff
ff
ff
00
ff
01
01
00
00
00
00
00
01
00
ff
00
ff
ff
00
01
00
01
00
00
00
00
ff
00
00
00
00
00
01
00
00
01
ff
fe
00
00
00
00
00
ff
00
00
00
ff
00
ff
01
00
00
ff
00
00
00
00
00
00
00
00
01
02
01
00
01
01
00
00
00
ff
01
00
ff
00
00
00
00
01
00
01
01
00
00
01
00
01
00
01
01
00
01
00
ff
00
00
ff
00
00
00
01
01
00
00
00
ff
ff
00
ff
fe
fe
00
00
00
00
00
00
00
ff
00
ff
00
ff
00
00
00
00
ff
00
ff
00
ff
00
00
00
00
fe
01
00
00
00
00
ff
00
00
01
00
00
00
00
00
ff
fe
01
00
01
00
00
ff
00
00
01
00
00
00
00
00
00
00
ff
ff
00
01
00
fe
00
ff
ff
fd
00
00
00
00
00
01
00
00
00
ff
01
00
01
00
ff
01
00
00
00
00
00
01
fe
ff
ff
ff
ff
fe
00
00
00
fe
00
00
ff
ff
00
01
00
00
ff
00
00
00
00
00
01
00
01
00
00
00
00
00
00
00
fe
00
00
ff
00
ff
00
00
00
02
ff
ff
00
00
fe
fe
00
00
01
01
01
00
01
00
00
00
00
ff
ff
01
01
00
00
00
00
fe
ff
ff
00
01
00
00
00
00
00
01
00
00
00
00
ff
00
00
00
00
00
ff
00
00
00
00
00
00
01
00
fe
00
00
ff
00
00
ff
00
01
00
fe
ff
00
00
00
02
01
00
00
00
ff
fe
fe
00
ff
00
ff
00
00
00
ff
fe
00
00
00
01
00
00
00
00
ff
ff
ff
00
00
00
ff
00
00
ff
00
01
00
01
01
02
00
ff
01
00
00
00
00
ff
ff
ff
00
00
00
00
00
ff
00
00
00
00
00
00
fe
fe
00
00
01
00
ff
00
00
00
00
00
01
00
ff
00
ff
ff
00
01
01
00
00
ff
00
00
00
00
00
00
01
00
ff
00
01
01
01
00
00
00
00
00
00
00
ff
00
ff
00
01
ff
00
00
ff
00
00
01
00
00
00
00
ff
00
00
00
01
00
00
01
ff
00
00
00
01
00
ff
01
00
00
fe
00
ff
01
00
00
00
ff
00
01
00
01
01
02
00
00
ff
00
ff
ff
00
ff
00
00
01
01
01
01
00
01
01
01
00
00
00
01
00
00
00
ff
ff
00
01
00
00
00
00
00
01
00
00
ff
00
00
00
ff
00
01
00
00
00
ff
01
ff
00
00
01
00
00
00
00
01
01
00
00
00
00
01
00
00
00
00
00
ff
ff
00
00
00
00
ff
00
ff
00
00
00
00
00
fe
ff
00
00
00
00
00
00
00
00
00
01
00
01
00
01
01
00
ff
00
00
01
00
00
00
00
00
01
01
00
00
00
01
00
00
00
fe
00
00
00
00
00
00
01
00
00
00
00
00
01
01
01
00
00
00
01
ff
00
00
00
ff
00
00
00
00
00
ff
00
00
00
00
01
01
01
01
00
00
00
00
ff
00
00
00
01
00
01
00
01
01
00
01
00
ff
00
fe
00
ff
ff
00
00
00
00
ff
ff
01
00
00
00
00
ff
00
00
00
01
00
00
00
00
00
01
00
ff
01
01
01
00
00
00
01
01
ff
00
01
00
00
00
02
00
00
01
00
00
00
00
ff
02
ff
01
01
ff
00
00
00
00
05
fd
fd
00
01
00
02
00
fe
00
00
fd
fe
00
00
fe
02
00
00
02
fd
00
fe
ff
fe
00
01
00
02
ff
00
02
ff
01
01
00
01
01
fe
00
01
00
00
00
00
ff
01
00
00
02
00
00
01
fe
01
ff
00
00
02
00
00
ff
00
00
fe
02
ff
ff
00
00
fe
00
00
fe
fe
fe
02
ff
00
fd
f9
ff
fb
fb
fe
00
fc
00
fd
03
fd
04
08
00
fc
00
fc
00
ff
fe
ff
00
00
ff
ff
ff
00
00
00
01
00
00
00
00
ff
02
07
03
03
09
02
03
05
04
05
fe
00
fe
02
ff
00
fd
01
02
ff
ff
fe
00
ff
ff
fe
00
01
ff
01
00
00
00
00
01
00
04
02
01
00
fc
ff
fd
fd
fe
00
fe
fe
fd
fc
00
ff
00
00
00
01
ff
ff
00
fe
01
02
02
fc
01
ff
03
04
00
fe
00
00
00
00
01
01
00
00
00
01
03
fe
01
fe
ff
00
01
ff
00
fe
03
08
02
00
00
03
00
01
00
fe
ff
00
01
fe
04
00
ff
01
01
01
00
02
00
02
fe
01
01
fe
ff
02
01
01
00
03
00
01
00
ff
ff
01
00
00
00
fe
02
fc
fe
01
00
fe
fe
00
00
00
03
02
03
02
01
02
01
00
ff
00
ff
00
fc
fb
ff
fe
fb
fc
fe
ff
ff
ff
00
ff
02
fe
00
fd
fb
ff
fe
f9
00
04
01
04
00
fd
00
fd
00
ff
01
02
01
ff
ff
ff
00
00
01
01
00
fe
ff
fe
00
fc
f9
ff
01
f9
ff
00
00
00
00
fc
00
ff
00
00
ff
00
03
fc
fc
01
ff
fa
fc
00
00
01
02
00
00
ff
00
ff
fc
ff
fc
fe
0a
fe
fa
f8
fc
fd
fb
00
fd
f7
fc
ff
00
ff
01
03
02
ff
fd
02
05
00
04
f9
fc
00
fb
f9
01
00
fe
00
00
fb
02
ff
fe
fe
02
00
02
fc
05
00
00
00
00
00
02
00
00
01
02
00
01
01
04
03
02
00
00
fe
01
fc
00
ff
ff
ff
00
00
ff
00
fd
ff
00
00
00
00
01
00
01
ff
fe
00
00
00
00
fd
02
02
fd
ff
ff
00
00
00
00
00
fe
fd
00
01
01
01
ff
01
ff
00
ff
03
04
01
01
fe
02
fe
01
04
01
04
03
04
fe
fe
ff
00
05
ff
fd
fc
fe
ff
01
00
00
00
fe
00
00
fe
ff
ff
ff
01
00
02
fe
01
00
00
01
01
05
03
01
00
00
00
fe
06
fd
04
05
01
ff
01
00
fe
00
fc
00
05
fc
00
03
fe
01
00
00
00
00
00
04
00
04
ff
ff
00
fd
00
fe
fd
ff
00
01
01
ff
ff
00
00
00
fe
00
00
05
fe
03
06
00
03
03
00
fe
ff
00
00
00
01
00
01
01
ff
00
fe
01
01
00
ff
fd
00
01
00
00
00
02
ff
00
01
00
01
ff
00
ff
ff
02
00
00
00
00
fa
01
fd
f6
00
04
ff
01
02
00
00
00
ff
01
ff
02
00
02
00
02
04
04
03
00
01
02
00
06
ff
00
08
02
fe
00
ff
04
ff
fe
ff
01
ff
00
01
00
fe
00
00
00
01
00
00
02
fe
00
00
fe
fc
00
03
00
00
00
01
00
00
02
fd
fe
00
fe
ff
00
00
01
fe
00
ff
00
ff
fe
00
00
00
00
00
00
01
02
ff
00
03
00
00
01
00
00
01
02
00
03
01
01
03
02
01
01
00
fe
02
00
fe
ff
02
02
02
00
00
00
00
00
01
ff
00
00
01
ff
00
fe
fe
01
04
ff
02
00
00
03
00
00
03
01
00
01
03
00
00
fe
fe
fe
00
00
01
00
00
04
00
06
02
03
03
01
03
00
00
00
ff
01
00
ff
00
01
fe
fb
00
04
01
00
ff
02
00
02
02
00
00
00
00
00
fe
ff
00
fe
00
00
fe
00
ff
00
00
00
02
00
03
01
01
04
05
03
00
fa
fd
00
06
02
00
ff
fe
01
00
03
00
fc
02
03
02
00
01
04
00
01
03
04
00
ff
00
01
fc
00
fe
f5
fb
00
fc
fe
01
04
00
fe
ff
00
00
fe
00
01
fe
fe
00
00
ff
01
fe
00
00
01
01
01
fe
00
00
fe
00
fe
fd
ff
00
02
00
00
01
00
00
ff
00
fe
fe
01
ff
01
01
fe
09
00
03
04
04
03
02
01
fe
00
fe
00
01
00
ff
fe
01
01
00
02
00
ff
fe
00
00
ff
00
ff
00
01
02
00
00
00
ff
00
ff
00
fe
fb
fd
fe
fe
01
fd
00
ff
00
03
fc
01
00
00
01
fd
00
fb
fd
ff
01
00
05
03
01
00
ff
fb
fe
fc
fe
fc
fe
fe
00
fe
fc
01
00
01
00
00
03
00
03
04
01
00
02
01
00
ff
ff
01
00
02
00
ff
ff
ff
ff
fe
ff
01
03
00
00
01
fe
fe
00
01
ff
ff
02
04
01
02
03
02
ff
00
fe
02
00
00
01
00
00
02
00
00
01
03
00
fe
01
00
00
00
02
ff
fe
fc
ff
ff
00
02
ff
02
02
00
00
01
fc
ff
fe
fb
ff
ff
00
02
04
ff
04
02
ff
ff
01
02
00
00
ff
00
ff
ff
ff
ff
ff
ff
fb
fb
fe
fb
f9
fe
00
fb
01
fe
00
01
ff
ff
01
fe
00
fd
02
03
00
03
00
01
fd
fc
fd
00
00
00
03
03
01
00
00
00
02
00
02
00
fe
ff
00
00
ff
01
00
00
00
fe
01
00
00
ff
02
fd
01
03
01
00
01
ff
00
fe
00
00
01
00
00
ff
01
ff
00
fe
00
00
fb
00
00
fc
02
02
00
00
00
ff
00
ff
01
fe
04
04
ff
02
08
00
02
08
01
02
00
ff
00
02
00
00
00
00
fe
fd
00
fc
fd
00
ff
fe
ff
00
fe
00
00
02
00
fd
00
00
04
00
00
01
fe
ff
00
fe
00
02
fb
ff
02
fc
00
03
01
03
00
00
01
fe
00
ff
02
00
00
00
00
ff
ff
fd
02
01
00
01
03
00
00
00
00
fe
ff
00
fd
fb
fd
fd
00
00
fe
fd
ff
ff
ff
ff
00
00
fe
00
02
01
ff
01
01
fc
00
04
04
00
00
ff
00
00
00
00
00
00
01
04
02
00
ff
00
ff
00
ff
01
ff
00
04
03
04
02
00
ff
ff
00
00
fd
fc
fe
fe
fb
fe
ff
fd
fd
00
fe
00
ff
00
00
fe
02
ff
ff
00
00
00
00
fe
00
00
00
ff
fe
00
03
02
ff
02
05
02
02
02
03
fe
fc
00
02
ff
00
ff
00
01
00
00
00
01
00
02
02
fa
fe
fd
fe
00
00
ff
00
01
07
00
fe
00
fe
00
00
01
00
02
01
fe
00
03
fe
fe
01
03
fe
00
03
01
00
01
01
fe
01
01
00
00
00
01
00
00
00
fd
fa
ff
fd
f9
00
00
ff
00
ff
ff
02
fd
fb
00
01
04
01
ff
00
00
ff
00
00
00
fe
fe
00
00
00
ff
fe
ff
ff
00
00
05
fe
01
00
f6
fd
01
fd
00
fd
02
00
01
ff
00
00
01
03
ff
fe
fe
00
fe
00
fe
fd
00
00
fd
01
01
fe
01
06
01
05
fd
03
fc
ff
04
fd
02
04
00
ff
ff
00
01
0a
05
00
ff
01
00
ff
ff
fb
f8
fe
04
00
04
02
03
02
01
fd
02
03
fe
02
01
00
fe
ff
ff
01
00
ff
00
01
03
00
04
02
ff
ff
03
00
00
00
01
00
ff
fe
fe
ff
ff
04
01
03
fe
ff
00
fe
00
00
01
fd
ff
00
fd
ff
02
ff
00
01
00
ff
ff
03
00
02
02
02
ff
00
fe
ff
fd
00
ff
00
00
02
03
01
00
00
00
02
00
00
ff
00
fd
00
03
00
01
02
02
00
00
ff
00
00
fe
ff
01
01
00
fd
02
00
02
04
01
01
02
03
03
02
01
03
03
01
fe
02
fe
00
ff
00
00
00
fe
fe
fd
00
00
ff
ff
fc
ff
00
00
00
00
00
00
00
00
01
ff
00
00
00
02
ff
00
fd
fc
00
fe
01
00
00
00
01
02
00
00
fd
ff
ff
01
ff
01
03
01
03
05
02
02
00
04
01
00
02
fd
ff
00
ff
fd
ff
ff
00
00
01
01
00
fe
ff
01
00
00
00
01
fe
ff
03
09
04
02
03
fe
04
00
ff
01
fd
01
fe
00
ff
ff
00
ff
fe
00
01
01
01
00
00
ff
fd
fe
fd
fe
fd
fe
fe
01
00
00
02
ff
ff
ff
ff
ff
fd
fe
fd
00
03
fd
00
00
00
02
fd
00
00
00
00
01
00
00
02
00
01
00
00
fe
ff
00
00
ff
fe
00
00
fe
00
fe
00
00
00
ff
01
ff
00
fe
fe
05
fe
00
fe
ff
ff
02
00
04
00
ff
02
02
01
00
ff
00
ff
02
01
02
00
01
ff
fd
fd
fb
fb
fe
fd
01
00
fd
00
fa
00
05
fe
00
00
ff
ff
fe
ff
01
00
00
fe
01
00
00
01
fe
fe
ff
00
00
fe
00
02
04
fe
06
05
00
01
01
01
00
fe
ff
01
02
01
03
04
02
fd
01
00
01
00
fe
03
03
00
00
fb
ff
fe
fa
fd
01
00
ff
00
fd
00
00
fc
00
00
00
00
00
00
03
fe
fe
00
01
00
00
00
00
00
03
01
00
00
fe
fe
03
06
02
03
05
00
ff
00
03
00
02
00
ff
01
01
02
00
00
00
fe
02
fe
f2
fe
00
f8
ff
01
00
02
00
00
00
01
fc
ff
01
ff
02
01
00
01
01
02
00
ff
00
01
ff
00
02
00
00
02
04
03
01
04
02
05
02
00
00
fe
fe
ff
fa
f9
fc
fd
fb
01
f9
fc
02
fb
fb
00
00
01
00
00
fe
ff
ff
fb
fd
00
ff
00
00
ff
00
00
fe
fd
ff
00
00
00
fd
02
00
fe
ff
ff
00
fd
01
00
00
00
fe
ff
fe
ff
00
fd
fd
00
00
fd
00
ff
00
02
00
01
ff
01
01
00
00
00
00
fc
ff
02
fe
02
01
04
01
00
00
00
02
01
00
ff
00
00
00
fd
fe
fd
fd
fc
fc
00
fe
02
00
00
03
03
04
01
00
02
02
01
04
00
00
02
00
00
ff
fc
00
ff
02
ff
00
00
ff
02
fe
ff
01
00
fe
fe
00
00
01
00
03
00
00
01
01
fc
00
ff
01
00
fc
02
fd
fe
02
00
01
04
ff
fe
00
fd
f6
fe
00
05
04
00
00
00
fe
00
ff
00
00
ff
00
ff
ff
00
ff
ff
02
00
ff
ff
05
02
04
06
00
fc
fd
00
fe
02
00
ff
02
01
01
00
fe
fc
fe
fe
00
fe
fe
ff
00
00
04
04
02
ff
fd
00
00
ff
00
00
ff
fe
ff
ff
00
fe
00
ff
01
01
00
fe
01
01
00
01
fd
01
00
00
01
00
00
02
fe
00
fd
ff
fe
01
00
00
02
05
01
fd
00
00
fe
fe
fd
03
01
01
00
00
00
00
ff
01
ff
fd
fe
02
fe
00
00
fe
ff
01
02
00
05
ff
ff
02
ff
00
fe
fd
ff
00
00
00
fe
fb
01
01
00
00
00
00
ff
00
00
00
fe
00
01
00
ff
01
00
01
00
fe
00
fe
00
00
00
01
fe
fe
fe
ff
00
fb
00
00
f8
fb
fd
fe
fc
fe
00
01
01
00
02
01
01
00
01
00
fd
fe
00
fe
fe
01
02
ff
00
00
00
01
01
00
01
02
00
00
00
00
ff
fe
ff
00
ff
01
02
02
00
02
00
02
00
02
02
00
00
01
00
00
00
00
00
00
00
00
ff
00
00
00
ff
00
00
00
00
00
00
00
00
00
ff
00
00
fe
ff
00
00
00
00
00
00
01
01
01
ff
00
00
00
00
00
00
ff
fe
00
fe
fe
03
01
00
00
00
fe
fe
fe
00
00
00
00
00
02
00
01
01
01
01
00
00
00
02
02
01
01
00
00
00
01
ff
00
ff
fe
ff
00
ff
00
01
00
00
ff
00
02
00
01
02
00
00
ff
01
01
00
00
00
ff
ff
01
00
ff
01
01
00
00
00
00
01
ff
fe
01
ff
ff
ff
00
ff
ff
00
00
01
ff
00
01
ff
00
00
00
01
00
00
00
00
00
00
00
00
00
ff
ff
ff
fe
fe
00
01
ff
00
01
00
00
00
ff
00
00
01
00
01
00
00
01
00
00
00
00
fe
fe
fe
ff
00
00
00
00
00
01
ff
00
01
00
00
ff
01
01
01
02
02
01
01
01
01
00
00
00
01
00
01
00
00
ff
00
01
00
00
ff
ff
ff
ff
00
00
01
01
01
01
01
02
02
02
00
00
fe
ff
00
00
ff
fe
fd
ff
00
00
ff
00
01
00
01
fe
01
00
00
01
00
01
01
01
01
ff
00
00
01
00
ff
02
01
00
00
01
ff
00
00
00
00
fe
fe
00
00
ff
00
00
00
ff
ff
00
00
00
ff
ff
fd
00
fe
ff
00
00
00
00
ff
ff
00
fe
fe
00
ff
00
00
ff
fd
ff
00
00
fe
ff
ff
ff
00
ff
ff
01
00
00
00
00
00
00
00
01
00
ff
00
00
01
ff
00
01
ff
fe
00
00
00
01
01
00
01
01
02
ff
00
ff
ff
ff
00
02
01
01
01
00
fe
ff
00
01
00
02
00
01
00
00
01
ff
01
00
00
ff
01
ff
ff
01
00
01
ff
00
00
00
ff
ff
00
00
fe
ff
00
fe
ff
ff
00
01
02
00
ff
00
ff
fe
00
00
00
01
00
00
00
01
00
01
00
01
00
00
ff
02
00
00
01
00
00
00
00
01
ff
00
00
00
ff
00
fe
01
fe
ff
00
fd
ff
00
02
00
00
00
00
00
00
00
00
00
ff
fe
fe
00
00
00
00
01
ff
00
ff
ff
00
00
ff
00
00
00
01
ff
ff
00
00
00
01
00
00
00
00
fe
00
00
ff
00
00
ff
ff
fd
fd
00
fe
fe
fe
fe
fe
00
00
ff
00
00
ff
00
00
00
00
00
00
ff
ff
00
ff
00
fe
00
ff
ff
00
00
00
00
ff
ff
ff
ff
ff
ff
00
ff
00
00
fd
fe
00
00
fe
01
00
00
00
00
00
ff
01
00
00
01
01
00
ff
00
01
00
00
01
ff
00
00
00
00
01
fe
00
00
01
00
00
02
02
00
02
00
00
02
00
03
02
ff
01
02
00
01
01
01
00
00
00
00
00
00
00
00
00
00
00
ff
ff
01
ff
01
fe
00
fe
ff
00
00
fe
ff
00
00
fe
ff
00
fe
01
ff
01
00
00
00
00
00
00
fd
ff
00
ff
ff
00
00
00
00
ff
00
ff
00
ff
00
ff
00
ff
ff
01
01
00
01
00
00
00
fe
ff
01
ff
01
ff
00
00
00
ff
ff
fe
00
00
ff
00
00
ff
00
fe
00
00
ff
00
00
00
00
ff
fe
00
00
fe
ff
00
00
01
01
00
00
00
00
00
00
fe
ff
00
00
fe
00
ff
ff
ff
00
ff
01
ff
fe
00
00
00
00
fe
00
ff
00
fe
fe
00
ff
fe
01
00
01
00
00
ff
01
ff
ff
00
00
ff
00
01
ff
00
01
00
00
00
00
00
00
02
00
00
00
00
00
00
00
00
01
00
00
00
01
01
00
ff
00
00
00
00
00
00
00
ff
00
00
ff
ff
ff
00
ff
01
00
fe
ff
ff
00
00
01
ff
ff
00
00
00
01
ff
fe
fe
00
00
02
fe
00
00
ff
00
00
00
00
00
00
00
00
ff
00
00
00
00
fe
00
01
ff
ff
00
fc
00
00
ff
ff
00
00
02
01
00
00
01
00
ff
00
ff
01
ff
00
00
00
00
01
ff
00
00
00
00
00
00
02
ff
00
00
00
00
00
ff
00
00
00
00
00
00
00
01
00
00
01
00
fd
ff
ff
00
ff
00
01
01
00
01
01
00
ff
01
ff
00
00
fe
fe
00
ff
00
fe
03
05
02
01
00
01
03
02
02
ff
00
01
00
01
00
00
00
02
00
00
fe
ff
00
00
00
00
01
01
00
00
00
00
00
00
00
00
00
ff
00
ff
ff
ff
ff
00
01
00
00
01
00
ff
00
00
00
02
ff
ff
00
ff
01
01
00
00
ff
00
00
ff
00
01
ff
00
ff
00
00
ff
ff
ff
00
02
ff
01
01
00
00
ff
00
00
00
ff
00
00
00
ff
ff
ff
00
01
00
02
01
00
00
ff
01
00
00
ff
01
ff
00
fd
00
00
fe
fe
ff
00
00
00
00
00
00
00
01
00
00
00
01
02
03
ff
00
01
00
ff
00
01
00
00
02
00
00
01
02
01
00
01
00
01
ff
ff
00
00
01
ff
01
00
00
ff
ff
ff
00
00
01
ff
01
ff
ff
ff
00
ff
ff
01
ff
ff
00
ff
00
02
ff
00
fe
00
00
00
00
00
00
00
ff
00
ff
00
01
02
01
02
00
00
00
04
01
01
03
01
02
04
01
00
01
01
00
01
00
ff
01
00
00
00
00
01
00
00
00
00
00
00
ff
ff
02
00
ff
02
03
01
00
00
00
ff
00
00
00
00
00
ff
01
00
01
00
01
02
00
00
00
00
00
00
ff
fe
00
ff
fe
00
ff
00
00
00
00
00
01
00
ff
00
fe
01
fe
00
00
00
ff
00
01
00
00
ff
00
00
00
00
ff
ff
00
00
00
00
00
00
fe
fe
00
00
00
00
00
01
00
00
00
ff
00
00
fe
01
ff
00
02
00
00
00
01
00
01
00
00
00
00
ff
ff
01
00
00
01
00
00
02
ff
00
00
00
00
00
00
01
00
00
00
00
00
00
00
01
00
02
00
00
00
00
00
00
00
00
00
00
01
ff
00
01
00
00
00
00
ff
00
ff
00
00
00
00
ff
fe
00
00
ff
00
fe
01
00
00
ff
00
01
00
ff
01
00
ff
01
00
00
00
ff
ff
00
01
00
01
00
00
00
00
ff
00
00
00
ff
00
01
00
ff
00
00
ff
00
00
ff
ff
00
01
00
00
00
00
00
00
00
00
00
ff
fe
00
01
ff
01
ff
00
fe
00
ff
00
fd
01
01
ff
00
00
00
00
01
00
00
fe
00
00
00
fd
00
00
ff
00
00
00
ff
fe
00
00
00
00
00
00
00
ff
ff
ff
00
00
01
00
00
01
01
00
01
00
fe
00
00
ff
ff
ff
00
00
00
ff
00
00
00
00
00
ff
01
00
00
00
00
ff
ff
00
00
ff
00
01
00
00
00
ff
00
00
ff
ff
01
fe
ff
00
ff
00
00
00
00
ff
00
ff
00
00
01
00
00
02
01
00
00
ff
ff
00
fc
ff
ff
00
ff
00
00
fe
00
01
01
02
00
00
ff
00
00
00
00
00
00
02
ff
00
00
ff
00
01
00
00
01
00
ff
00
00
00
ff
00
ff
00
fe
ff
01
00
01
00
02
01
ff
01
00
ff
00
00
00
00
00
00
ff
00
00
00
ff
00
00
01
01
01
ff
ff
00
00
00
ff
01
00
ff
00
00
00
00
00
00
00
01
ff
00
ff
00
00
ff
02
00
00
00
ff
03
00
01
01
00
01
01
00
01
00
03
01
ff
00
fe
00
ff
00
01
00
00
00
00
ff
fe
00
00
00
00
ff
00
01
00
ff
00
01
ff
00
00
01
00
ff
00
ff
fe
01
ff
00
00
03
01
02
02
00
fe
00
fe
fd
01
fd
ff
00
00
00
00
00
00
00
ff
00
00
00
01
00
00
00
ff
00
ff
00
00
ff
00
ff
00
00
00
00
00
00
00
00
00
00
00
00
00
02
00
00
00
ff
01
00
00
00
ff
00
00
00
00
02
00
01
ff
01
00
00
00
00
01
00
ff
00
00
00
00
00
01
00
01
00
00
02
01
00
00
01
00
01
00
00
00
01
ff
00
01
00
00
00
01
01
00
00
ff
01
00
00
00
ff
00
00
ff
00
ff
fe
00
00
00
00
00
00
00
00
00
00
02
00
00
00
01
01
01
00
01
00
00
03
00
00
ff
ff
ff
00
00
00
00
01
00
00
00
00
00
00
00
00
ff
00
01
ff
00
01
01
00
fe
ff
00
ff
00
fe
00
00
00
01
00
ff
ff
01
ff
ff
01
ff
00
00
00
00
ff
00
01
fe
fe
00
00
00
00
00
00
fe
00
00
ff
00
00
00
00
00
00
00
00
00
00
00
01
ff
00
00
00
00
00
00
ff
00
00
fc
fe
00
01
ff
00
00
fe
fe
ff
fe
00
00
00
ff
01
00
ff
00
01
01
00
ff
00
00
ff
ff
fd
00
00
00
01
ff
00
01
00
ff
00
00
00
01
00
fe
ff
00
ff
ff
01
00
00
01
00
00
00
00
00
ff
00
ff
fe
fe
ff
00
fd
ff
ff
00
00
00
00
ff
ff
00
00
ff
00
00
00
ff
fe
fe
ff
00
00
00
00
00
00
fe
ff
00
00
fe
00
ff
00
ff
00
01
01
00
ff
00
00
00
ff
ff
00
00
ff
01
00
01
01
02
01
02
01
04
00
02
04
02
00
00
01
00
ff
01
ff
fe
ff
00
ff
00
01
00
00
00
00
00
00
ff
00
00
00
00
01
ff
fe
01
00
01
00
00
01
00
02
ff
ff
ff
ff
00
00
00
00
00
00
00
00
00
01
ff
00
ff
00
00
00
ff
00
00
ff
ff
00
00
00
fe
ff
00
ff
00
00
ff
01
00
00
ff
00
00
00
ff
00
00
ff
fe
00
00
00
00
ff
01
01
ff
fe
fe
00
fe
fd
00
fe
ff
00
02
01
00
00
00
01
ff
ff
00
00
ff
fe
ff
ff
00
00
ff
ff
ff
01
ff
00
ff
ff
ff
00
00
ff
01
00
00
00
ff
00
ff
00
00
00
01
01
00
00
01
00
01
02
02
01
00
00
01
fe
ff
ff
fe
fd
00
00
ff
00
00
ff
00
01
01
01
00
00
00
ff
01
00
00
00
01
ff
00
ff
00
00
00
01
00
ff
01
ff
01
01
01
00
00
00
ff
ff
00
00
ff
ff
00
01
00
00
02
00
00
01
00
00
00
00
00
01
00
ff
00
00
00
00
00
00
00
ff
ff
00
00
00
00
00
00
ff
01
01
00
00
00
00
00
fe
fe
ff
00
00
01
00
00
ff
ff
00
00
00
01
ff
ff
01
00
00
01
01
ff
00
01
00
00
00
00
00
00
00
01
00
00
02
00
01
00
00
00
00
00
ff
00
00
00
00
00
00
00
ff
fe
00
00
00
00
00
00
ff
00
01
00
fe
00
ff
00
00
00
ff
00
00
01
00
00
00
00
00
01
00
00
00
00
00
ff
00
00
ff
00
ff
00
01
00
00
00
ff
01
00
00
ff
00
ff
00
00
00
00
00
00
02
00
00
00
ff
fe
ff
00
00
fe
00
01
ff
00
00
ff
00
00
00
ff
ff
ff
00
01
00
01
ff
fe
00
01
00
00
00
fe
ff
01
ff
00
ff
00
01
00
00
ff
00
ff
00
01
00
01
fe
00
01
00
00
00
00
00
00
02
00
01
00
01
00
00
00
01
ff
00
00
ff
01
fe
ff
ff
ff
ff
fe
00
fe
fe
ff
01
00
00
ff
fe
ff
00
00
00
00
ff
00
ff
ff
00
ff
00
00
01
00
ff
01
00
00
ff
02
00
01
02
00
ff
02
ff
00
ff
fe
01
fe
fe
00
00
00
ff
01
00
00
fe
fe
ff
fe
00
00
01
ff
00
fe
ff
02
01
ff
00
02
ff
00
01
00
00
00
00
00
00
fe
02
00
02
00
00
ff
00
00
ff
00
fe
ff
00
00
ff
00
01
ff
02
ff
ff
02
00
01
ff
01
00
00
00
01
00
ff
00
01
02
fe
02
01
01
ff
ff
01
00
01
00
00
00
ff
01
00
00
01
00
00
00
00
00
ff
00
ff
ff
00
00
00
00
00
00
ff
ff
00
00
00
ff
01
ff
00
00
01
fe
ff
ff
00
ff
01
ff
01
00
ff
ff
ff
ff
00
01
00
01
fe
ff
00
ff
00
01
00
01
fe
00
fe
01
01
01
02
ff
ff
ff
ff
01
00
fe
00
00
ff
01
00
00
00
00
00
00
00
01
00
fe
00
ff
01
00
00
01
00
00
01
00
00
ff
02
01
02
00
02
00
ff
fe
00
02
00
01
00
00
00
ff
00
ff
ff
fe
00
fe
00
fe
fe
00
00
01
fe
00
02
02
fe
02
00
fe
00
00
fe
01
00
00
00
ff
00
fe
ff
01
00
00
01
01
ff
00
fe
00
ff
00
00
ff
fe
00
00
ff
ff
00
ff
00
00
ff
ff
fe
01
01
fe
ff
01
ff
01
ff
00
00
fe
fe
00
fe
00
00
01
01
01
01
fe
fe
fe
ff
00
ff
01
ff
00
ff
ff
00
ff
00
00
ff
00
ff
00
ff
01
00
ff
00
00
01
01
00
00
01
00
01
01
00
ff
00
01
ff
01
00
00
ff
01
00
00
00
01
ff
00
00
00
00
01
00
01
00
00
01
ff
fe
00
01
01
00
00
01
ff
ff
01
01
00
00
fe
00
01
00
00
00
ff
ff
ff
00
00
ff
00
00
00
00
fe
fe
00
00
00
00
ff
ff
00
ff
00
00
fe
ff
00
ff
00
00
00
00
00
ff
00
01
01
ff
01
00
00
01
ff
01
01
02
00
00
00
00
01
fe
00
ff
00
01
00
ff
fe
fe
01
00
ff
00
01
01
00
00
ff
00
ff
01
ff
ff
01
02
ff
00
00
01
ff
00
01
01
00
ff
01
fe
00
01
ff
00
00
00
01
00
00
00
ff
00
00
00
00
01
00
00
01
01
01
ff
00
00
00
00
00
ff
00
00
00
ff
00
00
00
ff
01
00
00
ff
00
00
01
00
fe
ff
ff
00
00
02
00
00
00
02
ff
01
00
02
00
ff
00
01
00
ff
00
01
00
ff
ff
01
00
01
00
ff
00
00
00
00
ff
ff
00
00
00
00
00
00
00
02
00
01
fe
ff
01
ff
ff
fe
ff
00
00
ff
ff
00
ff
01
01
00
00
00
ff
00
00
00
02
ff
ff
00
01
01
00
00
01
00
00
00
00
01
00
01
00
01
fe
00
00
ff
00
00
01
02
fe
01
00
00
00
00
00
00
01
01
00
ff
02
00
00
00
ff
ff
ff
01
02
00
00
01
ff
ff
ff
00
01
ff
00
fe
ff
ff
01
00
00
00
00
00
00
02
01
ff
00
00
00
00
01
00
00
00
ff
ff
00
ff
00
01
02
00
fe
00
00
ff
01
ff
00
00
00
fe
fe
01
fe
01
fe
00
00
00
02
ff
ff
00
01
00
00
00
00
01
00
00
ff
00
00
00
01
ff
00
00
00
00
00
00
00
00
00
00
02
01
fe
01
01
00
ff
01
00
00
00
ff
00
01
01
00
00
fe
ff
01
ff
ff
00
00
00
01
ff
02
00
00
00
ff
00
00
ff
00
01
00
ff
00
ff
00
01
01
ff
00
00
00
fe
02
00
ff
fe
01
01
00
01
ff
00
fe
00
ff
ff
ff
00
00
00
00
01
01
ff
02
00
02
01
01
00
ff
00
00
ff
fe
fe
ff
02
01
01
00
01
00
00
00
00
01
00
ff
ff
ff
01
fe
fe
00
fe
00
01
01
00
00
ff
01
00
00
02
00
00
02
00
00
00
ff
ff
00
01
01
ff
00
ff
00
01
fe
00
02
fe
01
00
01
01
01
00
01
00
ff
00
00
00
fe
00
00
00
ff
01
00
00
01
00
01
00
02
00
00
ff
ff
ff
fe
ff
01
fe
02
01
00
02
00
02
ff
ff
01
ff
01
00
01
fe
00
00
00
ff
00
00
01
00
ff
ff
00
00
00
00
00
00
00
00
ff
ff
00
01
ff
01
ff
ff
01
fe
00
00
ff
00
ff
01
ff
00
00
fe
ff
01
ff
00
00
01
01
01
ff
00
00
00
00
01
ff
00
00
00
02
00
00
00
ff
00
00
00
00
00
ff
ff
00
ff
00
01
00
ff
01
00
fe
02
ff
00
ff
00
00
00
00
ff
01
00
00
ff
ff
00
00
00
00
fe
00
00
ff
ff
01
01
ff
00
fe
01
ff
fe
00
00
00
01
fe
fe
00
00
ff
ff
ff
01
ff
00
01
01
ff
ff
02
00
00
fe
00
00
01
00
ff
fe
00
00
fe
ff
01
00
ff
01
00
00
00
01
01
01
01
ff
ff
00
fe
ff
00
01
00
00
01
ff
fe
01
01
ff
01
00
01
fe
00
00
00
fe
00
00
01
ff
ff
00
ff
fe
01
00
00
01
00
00
00
ff
01
01
00
01
00
00
fe
00
00
01
00
00
00
00
00
00
00
00
01
ff
ff
01
ff
02
ff
01
01
00
ff
00
00
fe
ff
01
01
fe
ff
ff
01
02
ff
00
00
01
01
ff
ff
00
00
01
00
00
01
00
00
01
00
00
00
00
01
ff
01
ff
ff
01
ff
00
02
01
ff
ff
ff
01
02
01
fe
ff
00
00
ff
00
ff
01
ff
00
00
00
01
fe
00
00
ff
00
01
00
ff
fe
00
ff
01
fe
ff
ff
01
ff
fe
01
00
00
00
00
00
00
00
01
00
ff
01
00
00
00
ff
00
01
ff
ff
ff
ff
01
ff
fe
01
00
ff
02
01
00
01
00
02
00
02
00
ff
00
ff
00
00
02
01
ff
00
fe
00
ff
ff
01
00
ff
01
00
00
01
ff
00
00
01
fe
00
ff
ff
02
ff
00
ff
00
00
00
ff
00
00
00
01
00
ff
ff
00
fe
00
01
01
fe
00
00
ff
ff
00
ff
00
ff
00
00
fe
00
01
ff
01
fe
00
ff
00
00
ff
ff
ff
00
00
01
00
01
00
00
01
ff
fe
fe
ff
00
fe
00
00
00
fe
00
00
00
00
00
01
ff
01
00
ff
00
01
00
01
00
ff
00
00
01
01
ff
01
01
ff
ff
ff
00
01
01
01
01
00
00
00
fe
00
00
00
00
01
00
01
01
01
00
ff
01
02
00
01
00
00
00
00
01
00
00
ff
00
00
01
00
01
00
01
00
01
ff
ff
00
ff
00
fe
01
00
00
02
00
00
00
fe
ff
01
00
00
00
00
00
00
01
01
00
ff
00
fe
ff
00
fe
00
01
00
00
00
00
00
fe
fe
00
00
00
00
00
01
00
02
00
00
ff
02
ff
ff
01
01
00
00
01
00
ff
00
ff
ff
fe
00
01
00
ff
01
00
00
ff
fe
00
00
01
01
00
00
ff
00
00
00
01
00
ff
00
fe
01
ff
00
00
00
00
00
01
00
ff
ff
00
00
00
00
00
fe
fe
00
fe
00
ff
ff
ff
02
01
ff
00
01
00
00
00
01
00
00
ff
00
ff
ff
01
00
00
00
02
02
fe
01
02
ff
00
02
00
00
ff
fe
00
fe
ff
01
01
01
ff
00
01
fe
01
02
00
02
ff
00
ff
00
00
ff
ff
00
01
00
02
00
00
00
ff
00
00
00
00
01
00
00
01
01
02
00
01
01
00
ff
01
00
00
01
fe
00
ff
00
ff
ff
01
02
00
ff
00
00
01
ff
ff
00
fe
01
02
01
01
01
00
00
01
ff
02
00
01
00
00
01
01
00
ff
fe
00
ff
ff
00
00
00
01
ff
00
fe
00
00
01
00
00
01
00
fe
00
ff
ff
00
01
01
01
00
01
02
02
fe
fe
01
ff
fe
fe
00
00
01
00
00
02
01
ff
02
00
00
00
01
01
02
ff
02
00
01
01
00
ff
00
ff
ff
00
ff
02
01
00
fe
ff
01
02
01
00
01
00
00
01
fe
ff
00
fe
fe
00
ff
02
00
fe
01
fe
ff
00
ff
00
fe
00
00
02
01
00
ff
00
00
01
01
00
00
00
00
00
00
01
00
00
ff
01
00
02
fe
00
01
00
01
ff
00
fe
00
ff
01
00
01
fe
fe
00
02
ff
01
00
00
ff
fe
fe
01
00
00
fe
01
ff
ff
01
00
ff
ff
00
00
fe
00
ff
00
00
00
00
00
01
01
00
01
01
ff
00
fe
00
00
fe
ff
ff
ff
fe
00
00
01
fe
00
fe
00
01
ff
ff
fe
00
00
00
02
00
00
00
02
ff
00
ff
00
00
00
fe
00
00
ff
00
00
00
fe
00
00
00
00
ff
00
00
ff
00
ff
01
fe
fe
ff
00
00
ff
00
ff
00
00
01
00
00
ff
00
00
01
fe
fe
02
00
00
00
ff
00
01
00
fe
ff
02
ff
00
01
00
01
00
00
00
01
fe
01
00
00
ff
01
ff
00
01
00
01
00
01
00
ff
01
02
ff
00
fe
00
00
fe
01
00
00
00
02
02
fe
01
01
01
00
00
ff
00
02
01
ff
ff
00
01
ff
01
00
02
01
00
00
01
01
01
01
00
ff
ff
ff
ff
ff
00
ff
ff
ff
00
01
ff
00
01
01
01
fe
00
01
ff
ff
01
fe
fe
ff
00
00
fe
00
00
00
01
01
fe
02
02
00
01
01
00
ff
00
00
fe
00
00
01
00
01
00
01
fe
00
01
ff
01
00
02
02
02
00
01
00
00
01
00
00
fe
00
00
00
02
ff
02
ff
01
00
02
00
ff
00
ff
00
ff
ff
00
01
00
00
01
00
ff
00
fe
00
00
00
fe
00
ff
00
01
ff
00
01
fe
ff
ff
01
00
00
00
01
01
01
02
00
01
00
02
00
01
ff
00
01
01
01
00
01
ff
00
ff
fe
00
00
00
00
00
fe
00
00
00
02
00
00
00
ff
01
00
01
01
fe
00
01
00
ff
00
fe
00
00
ff
02
00
ff
00
ff
01
01
fe
fe
00
00
00
ff
fe
02
01
00
00
ff
ff
00
00
00
00
00
01
ff
01
00
00
01
00
ff
ff
01
ff
ff
00
ff
fe
fe
00
00
00
01
00
00
ff
ff
00
00
02
ff
ff
00
01
ff
00
00
00
ff
00
fe
ff
00
01
00
00
00
00
00
00
00
ff
fe
ff
00
ff
00
fe
02
ff
01
02
00
00
01
00
ff
ff
02
ff
00
ff
00
ff
fe
01
01
01
00
00
00
ff
00
00
00
ff
01
02
00
00
ff
ff
00
00
00
00
01
01
00
01
00
ff
00
00
00
01
00
00
00
01
02
ff
00
00
01
ff
fc
fe
00
00
00
00
02
00
00
ff
00
00
ff
00
00
fe
00
ff
00
00
01
00
00
00
ff
00
00
00
00
ff
ff
fe
ff
00
00
ff
00
00
00
00
ff
00
fe
00
00
fd
00
fe
00
00
ff
00
00
00
01
00
00
00
00
00
00
00
00
00
00
00
02
00
00
fe
01
ff
fe
00
00
00
00
00
01
01
fe
fe
ff
00
ff
ff
00
fe
00
00
01
00
ff
fe
fe
00
00
fe
00
00
00
ff
00
ff
00
01
00
ff
00
00
01
01
01
02
00
02
ff
00
00
01
02
01
00
03
00
00
fc
00
00
01
00
00
01
00
00
ff
ff
01
00
00
00
ff
00
01
00
00
00
ff
00
00
00
ff
00
00
00
00
fd
ff
01
00
00
ff
fe
00
00
00
01
00
02
00
00
fe
ff
00
fe
00
00
00
00
01
01
00
ff
00
00
00
02
01
00
01
01
00
00
00
00
00
00
00
00
00
01
02
00
00
00
02
01
ff
00
00
00
01
01
00
00
00
00
01
00
00
00
ff
00
01
00
00
01
00
03
00
00
fe
00
fd
fb
ff
00
00
00
00
00
00
00
01
00
ff
ff
00
00
00
00
00
00
00
02
03
00
01
03
02
ff
00
00
ff
00
00
00
00
00
00
00
00
00
00
00
01
00
01
ff
00
01
00
01
ff
00
02
00
ff
fe
00
ff
00
00
00
01
00
01
00
00
ff
ff
00
00
00
ff
00
00
01
00
01
00
02
00
00
00
fe
01
00
00
01
01
00
00
00
ff
00
00
fe
00
00
03
ff
fe
02
00
00
00
00
00
ff
01
00
ff
00
00
00
00
00
04
00
00
00
00
01
ff
00
00
ff
00
00
02
00
00
00
01
fe
01
00
ff
fe
01
01
01
00
00
03
01
01
00
00
ff
00
00
00
02
00
00
00
00
00
01
00
ff
00
00
00
00
00
01
00
02
01
00
00
01
00
00
00
01
00
00
01
00
00
01
01
00
00
00
00
00
00
ff
ff
00
00
00
01
00
00
00
01
ff
02
ff
00
00
ff
00
ff
00
00
ff
00
02
00
00
ff
00
ff
ff
00
00
00
01
00
00
00
01
00
00
fd
fe
fe
03
01
00
00
fc
00
fe
00
fe
00
00
00
01
01
00
00
02
00
00
00
01
00
00
00
00
00
01
fd
fc
ff
01
00
00
00
00
00
00
00
00
00
00
00
01
01
00
00
00
00
00
00
00
00
01
00
00
00
00
00
ff
ff
01
00
00
00
00
00
01
01
01
00
00
00
00
00
ff
ff
ff
00
01
00
01
00
ff
00
00
00
00
00
00
00
00
02
00
00
00
00
00
00
00
00
ff
ff
00
01
01
ff
00
01
00
01
00
02
01
00
ff
00
00
00
00
ff
00
00
ff
ff
fe
fe
00
00
00
01
00
ff
00
00
00
00
00
00
00
00
00
00
ff
00
00
00
ff
00
00
00
00
00
ff
ff
fe
fe
00
01
00
00
00
00
00
00
00
01
01
01
fe
fe
00
02
ff
00
00
00
00
00
00
00
00
01
00
01
01
00
00
00
00
00
00
00
00
00
01
01
01
00
00
00
00
ff
00
00
ff
01
ff
00
00
00
00
00
00
00
00
00
ff
ff
00
00
00
01
00
ff
00
ff
00
ff
00
00
00
00
fb
01
ff
fe
01
00
01
ff
00
ff
00
00
01
ff
01
00
00
ff
00
ff
ff
00
00
ff
00
01
00
00
00
ff
00
00
01
00
00
01
00
00
00
fe
00
02
fe
01
ff
00
00
00
00
00
00
00
ff
00
02
01
00
ff
00
00
00
00
00
00
00
00
ff
fe
00
fe
ff
01
00
00
00
00
00
00
00
00
01
00
ff
01
01
ff
00
00
00
00
02
00
01
00
01
00
00
00
00
00
00
00
ff
ff
ff
fe
00
00
01
01
03
08
01
00
00
00
00
02
02
fe
00
00
00
00
00
00
ff
ff
ff
00
00
00
01
01
ff
01
00
ff
00
00
00
ff
00
fe
fd
ff
fd
fe
00
01
00
00
00
00
00
ff
ff
00
00
01
01
00
ff
00
00
ff
ff
00
00
00
00
fd
00
ff
00
00
01
02
00
00
00
00
00
ff
ff
00
00
00
01
03
00
ff
fd
00
00
fb
fe
01
01
01
00
00
00
01
00
01
00
01
00
02
01
00
00
00
00
01
01
01
00
fe
00
fd
fe
fe
01
00
00
00
00
01
00
00
00
02
03
00
00
01
01
00
ff
00
00
00
ff
00
03
00
ff
00
ff
00
01
00
00
00
00
00
ff
00
00
00
ff
ff
ff
00
ff
00
00
00
01
01
00
ff
ff
02
00
00
ff
00
00
00
00
00
01
02
01
00
fe
00
fe
00
00
01
01
02
02
02
01
00
ff
00
00
00
01
01
01
00
00
00
00
00
fe
00
00
00
00
00
00
ff
00
00
00
01
00
00
fe
00
ff
00
00
00
01
00
ff
00
01
00
00
02
02
00
00
01
00
00
01
ff
fe
ff
02
01
00
00
02
00
00
01
00
00
00
ff
fe
ff
00
ff
00
ff
00
00
00
00
00
00
00
ff
00
00
00
ff
01
01
01
00
00
00
00
00
00
00
ff
ff
ff
fd
00
ff
00
00
00
00
00
00
00
fe
01
00
00
02
00
00
00
ff
00
00
00
ff
01
00
00
00
ff
00
ff
fc
00
00
00
00
01
00
00
ff
ff
00
00
00
00
01
01
01
00
00
00
00
01
00
00
00
00
01
00
00
00
00
00
01
03
00
01
00
01
01
01
00
00
01
02
02
00
02
01
03
00
00
00
00
ff
00
00
00
00
01
00
00
00
ff
01
ff
00
00
00
ff
fe
00
01
01
01
00
01
00
00
fd
ff
00
04
00
01
02
00
ff
fc
ff
ff
00
00
00
ff
00
00
00
00
00
01
01
00
00
01
ff
00
01
00
fe
ff
00
00
00
01
01
01
ff
01
00
00
00
00
00
ff
00
01
02
01
00
00
01
00
00
00
01
02
00
00
01
00
00
ff
00
00
01
02
00
00
01
01
00
00
00
00
00
ff
ff
00
00
ff
00
00
00
00
01
00
00
00
00
01
01
02
02
00
ff
00
00
fd
00
00
00
ff
00
00
00
01
ff
00
00
00
00
00
00
00
ff
00
00
00
00
ff
ff
00
01
02
00
02
00
00
00
02
01
00
ff
00
00
00
00
ff
00
00
00
00
00
00
01
00
01
00
00
00
00
01
00
00
01
00
00
fe
00
00
00
01
00
00
00
00
00
00
00
00
00
ff
ff
00
00
ff
ff
00
00
01
01
00
00
00
02
01
01
00
00
00
00
00
00
00
00
00
00
01
00
00
01
00
00
ff
00
00
00
00
00
00
01
00
00
00
00
00
00
00
00
00
ff
ff
ff
00
00
00
01
01
00
03
00
ff
fd
fe
00
00
00
00
00
00
00
00
00
00
ff
00
00
00
00
00
ff
ff
00
01
02
00
01
ff
ff
ff
01
ff
00
00
01
00
00
00
ff
00
01
00
01
fd
fd
ff
00
00
00
01
ff
00
00
02
01
00
00
00
ff
00
01
02
03
01
00
00
00
02
03
00
00
00
00
ff
ff
ff
01
00
ff
00
00
00
00
00
00
ff
ff
00
00
00
00
00
00
01
fc
fd
ff
fe
ff
00
00
00
00
00
00
00
00
ff
00
00
00
00
00
ff
00
00
00
00
fe
00
00
fe
fd
ff
00
00
00
00
01
00
01
00
00
00
00
00
01
00
01
00
00
01
00
ff
00
00
00
02
00
01
00
00
ff
00
00
00
00
00
00
00
00
00
00
02
04
00
01
01
00
00
01
00
ff
00
00
00
00
00
00
00
00
00
ff
ff
ff
fe
ff
00
00
fe
ff
00
00
00
fd
00
00
02
01
03
03
01
00
00
00
00
ff
ff
00
fe
00
00
00
ff
00
00
00
ff
00
00
00
01
00
00
00
00
00
00
00
01
00
01
01
02
01
01
00
00
01
ff
00
00
00
00
00
00
00
ff
fe
ff
00
01
00
00
00
00
00
fc
00
00
00
00
01
00
01
00
00
fe
00
03
00
00
01
01
00
00
00
00
00
00
00
00
01
01
00
00
00
01
00
00
00
00
02
00
00
00
00
ff
ff
fe
ff
00
00
00
01
01
00
00
00
02
ff
00
ff
00
00
00
00
01
00
00
fe
00
00
01
ff
00
01
00
01
01
00
00
00
00
01
00
01
00
ff
00
ff
00
00
00
01
ff
ff
fe
00
00
00
ff
fe
fc
00
ff
00
ff
ff
00
01
00
00
01
fe
fe
fe
00
03
00
00
01
00
02
00
01
00
01
00
00
ff
00
00
fe
00
00
fe
00
00
00
00
00
00
01
ff
ff
01
03
04
02
ff
00
00
01
ff
01
00
01
00
04
05
01
02
00
00
fe
fa
fe
01
00
01
00
00
00
00
ff
00
ff
01
00
01
02
00
ff
00
00
02
02
01
fe
fe
fe
00
00
00
ff
00
00
00
00
01
01
ff
00
00
04
00
00
03
00
fd
fa
00
00
00
00
01
01
02
ff
fd
00
00
01
00
00
00
ff
ff
fe
00
00
01
00
00
02
ff
ff
fe
00
00
00
00
02
04
01
f9
f5
fc
00
00
00
ff
00
ff
00
01
00
01
00
ff
00
00
ff
00
00
00
00
00
00
00
fe
ff
01
00
00
01
03
00
00
03
00
00
00
01
ff
00
00
01
00
00
00
ff
00
02
06
00
00
01
00
ff
fa
00
ff
fe
ff
00
01
00
ff
00
00
00
00
01
01
00
01
00
01
00
00
00
00
00
00
00
01
ff
00
00
00
01
00
01
fe
00
00
01
ff
00
00
01
00
00
00
00
00
ff
ff
ff
00
02
ff
fe
ff
ff
00
00
ff
00
00
00
00
02
00
01
00
01
00
00
02
01
00
01
00
00
00
ff
fe
ff
ff
00
00
00
00
01
00
ff
01
ff
fe
ff
00
00
00
00
fe
00
01
00
01
00
00
01
00
00
00
01
00
01
00
00
01
00
ff
ff
00
00
ff
00
02
01
00
00
ff
00
00
00
fe
00
00
00
ff
00
ff
00
fd
01
00
00
00
00
00
00
01
00
01
00
00
ff
02
00
00
00
00
00
01
00
01
00
00
00
01
00
ff
fe
ff
ff
ff
00
01
00
01
ff
00
00
ff
00
fe
ff
01
00
01
02
01
00
00
00
fe
00
01
00
00
00
00
00
00
01
00
01
01
00
00
ff
fe
00
00
01
00
00
01
01
00
00
00
ff
00
00
00
00
00
00
fe
ff
01
01
00
00
01
01
00
00
00
00
00
00
00
ff
00
00
00
01
ff
ff
00
00
00
01
ff
fe
00
00
00
01
00
ff
00
ff
03
00
01
00
00
ff
00
00
00
00
01
00
00
00
ff
ff
00
00
00
00
00
00
00
00
00
02
00
ff
ff
00
00
00
00
ff
01
00
ff
00
00
00
00
00
01
00
00
01
01
00
00
ff
fe
ff
00
01
01
02
01
01
00
01
fe
ff
02
ff
ff
00
00
01
00
00
00
00
01
01
00
00
00
00
01
00
00
00
00
02
00
00
02
00
00
02
02
00
ff
02
00
00
00
00
01
01
00
00
00
00
00
00
01
00
03
ff
01
00
fd
00
ff
00
00
01
00
00
01
00
00
03
01
ff
00
00
ff
01
00
01
00
01
fe
f9
ff
01
08
00
ff
ff
00
ff
01
00
00
02
00
00
02
01
fe
fd
fd
00
06
ff
00
00
00
00
00
00
00
ff
01
00
00
00
02
00
ff
00
00
00
ff
00
00
ff
fd
fe
00
00
00
00
01
00
00
03
00
ff
04
ff
ff
fe
00
ff
00
00
00
00
ff
01
01
01
00
00
00
00
00
01
01
00
01
00
01
00
fe
fe
ff
02
fe
ff
04
04
00
ff
01
ff
00
00
ff
00
00
fe
fd
00
fc
01
01
01
01
01
01
00
00
00
00
00
00
01
00
00
00
00
00
01
01
02
01
00
00
00
00
00
00
01
00
00
06
00
fd
ff
00
01
00
00
00
ff
00
ff
00
00
00
ff
01
00
00
00
00
01
00
00
00
ff
ff
02
01
00
00
00
02
ff
00
00
fe
01
02
00
02
00
00
01
00
02
01
00
00
00
ff
00
00
fe
fd
00
00
ff
00
ff
ff
00
00
00
00
00
05
00
00
01
00
00
00
00
00
fc
fe
00
00
00
ff
00
ff
00
01
01
01
00
00
00
01
00
01
ff
01
00
ff
00
00
00
00
00
00
ff
02
02
00
00
fe
fc
01
04
01
01
00
01
00
fc
ff
fe
fe
ff
fe
ff
ff
02
00
02
00
fc
00
00
01
00
00
01
00
00
00
01
00
ff
00
ff
f9
ff
01
06
00
00
00
00
00
00
00
02
03
01
00
00
ff
ff
03
00
fe
04
00
00
00
ff
00
ff
01
ff
03
01
00
00
00
fe
fd
00
01
05
00
00
fe
ff
ff
00
00
00
00
ff
01
00
01
00
00
00
00
00
ff
00
ff
02
ff
fe
01
02
00
00
00
01
ff
ff
00
00
00
00
ff
01
00
00
00
00
00
01
01
ff
00
00
01
00
00
01
00
fe
ff
00
00
00
ff
00
00
00
00
02
00
00
00
00
00
01
01
ff
00
fd
fb
ff
01
08
01
fe
01
00
00
00
00
00
fe
00
00
02
ff
00
00
00
00
fe
00
01
00
fd
00
00
00
ff
fd
fe
05
06
02
ff
01
00
00
01
fe
ff
02
00
00
ff
ff
00
fd
00
04
05
00
00
ff
00
00
00
00
00
01
00
00
00
00
fe
00
00
ff
fe
00
00
00
00
00
00
00
00
00
01
00
00
00
00
ff
ff
01
00
00
01
02
02
ff
00
00
02
02
01
ff
00
00
00
ff
00
00
00
00
00
fe
00
fe
fe
ff
01
03
00
00
00
00
00
ff
ff
00
00
00
02
00
00
01
00
00
00
01
00
ff
01
01
00
ff
00
00
02
00
00
01
01
01
00
00
00
00
00
00
00
00
00
fc
fe
00
06
00
00
00
00
00
00
00
ff
04
ff
01
fb
ff
02
04
02
ff
fe
ff
01
01
00
ff
00
01
fd
fb
fe
00
01
01
00
ff
fe
02
04
01
00
00
01
00
fd
00
00
fe
ff
01
00
01
00
ff
00
00
00
00
00
00
00
00
01
01
00
00
01
00
00
01
00
01
03
fe
fa
ff
00
ff
00
01
01
01
00
fe
01
01
01
00
00
00
02
00
ff
00
00
00
00
00
ff
00
00
00
00
00
ff
00
01
ff
00
00
00
00
01
00
00
ff
ff
ff
00
03
02
ff
01
00
00
00
00
00
00
00
ff
00
00
00
ff
00
01
01
fe
ff
ff
ff
00
01
00
00
ff
00
03
02
01
02
00
01
ff
fe
00
00
00
01
01
ff
00
01
00
00
00
00
ff
00
00
00
00
00
ff
00
00
00
ff
00
00
ff
00
00
00
00
01
00
fb
fb
ff
00
ff
00
ff
fe
03
06
01
ff
fd
00
00
00
01
00
00
00
ff
00
00
00
ff
00
ff
ff
fe
02
05
ff
00
ff
ff
01
03
03
00
01
00
01
00
00
01
00
00
01
ff
00
01
00
01
00
ff
01
00
00
00
01
01
01
fd
f9
fc
04
06
02
00
01
00
01
00
ff
01
00
00
ff
fd
ff
00
03
01
fe
00
ff
00
ff
ff
ff
00
00
01
00
00
00
00
00
02
01
ff
00
02
00
00
00
fe
00
00
fe
00
00
ff
ff
fe
00
00
ff
fe
00
04
00
00
01
01
00
ff
fe
fe
fe
fe
00
00
00
00
fe
ff
00
01
00
00
02
00
00
ff
00
00
00
01
00
fe
00
00
00
ff
00
00
ff
00
00
00
00
00
fe
00
03
01
01
00
ff
00
01
02
00
fc
00
00
00
ff
02
fe
ff
00
03
01
01
00
01
00
fe
00
00
01
00
fd
ff
01
01
01
00
01
00
00
01
01
00
00
ff
02
01
00
00
00
00
ff
02
00
01
00
00
02
00
00
00
00
00
01
00
ff
00
00
00
01
00
00
00
00
ff
00
ff
00
00
ff
fe
00
00
01
00
00
01
01
00
00
ff
ff
fc
00
ff
00
00
ff
00
ff
ff
03
00
00
fd
00
00
fe
00
00
00
00
01
01
01
01
03
00
fe
00
ff
00
00
fe
ff
00
ff
01
00
ff
01
01
fe
fe
ff
ff
ff
00
00
00
02
01
00
00
00
00
00
00
01
00
fe
01
03
00
01
00
00
00
01
ff
00
01
ff
00
01
00
00
00
00
00
fd
ff
00
00
00
01
01
01
00
fd
00
ff
fa
fe
00
00
00
01
00
00
00
00
ff
01
01
00
fe
fe
00
fe
00
ff
00
00
01
ff
00
00
ff
00
00
01
01
00
00
ff
00
02
03
02
01
02
00
00
fd
fe
01
04
01
01
00
00
00
00
00
00
02
00
00
02
00
01
00
00
02
01
00
01
02
01
01
00
00
00
00
00
01
00
00
01
02
00
00
00
00
ff
00
00
ff
01
01
00
02
00
01
00
00
00
00
00
ff
02
01
ff
00
00
00
00
01
fe
03
01
00
00
ff
00
00
00
00
01
00
00
01
00
00
00
00
01
01
01
00
00
00
00
ff
00
00
00
00
00
00
00
00
fe
ff
00
06
01
00
00
00
00
00
00
01
00
01
00
00
01
00
ff
00
00
00
00
01
00
00
00
ff
00
00
fe
fe
00
00
ff
02
02
02
ff
fc
fe
00
00
00
02
00
00
01
01
00
ff
ff
01
00
00
ff
00
00
01
02
01
01
fe
00
00
ff
02
fd
00
00
01
ff
ff
00
00
ff
01
01
01
00
00
00
ff
fe
00
00
ff
fe
ff
ff
ff
00
00
00
02
00
00
00
ff
00
00
ff
00
00
00
00
00
fd
fe
00
02
00
ff
ff
00
00
00
ff
00
01
00
01
00
00
01
02
02
00
00
01
02
00
00
ff
01
00
00
ff
00
00
02
00
00
ff
00
00
00
00
00
01
00
00
00
00
00
00
00
ff
00
01
00
00
00
ff
ff
01
ff
01
00
00
00
fd
fc
02
04
fd
ff
01
00
fe
fb
fe
02
01
00
01
ff
00
00
fd
fe
00
03
00
01
01
00
00
fd
00
fe
00
00
00
00
02
00
fe
00
ff
01
00
00
00
00
01
00
00
ff
00
00
00
00
00
ff
00
02
00
00
00
01
00
00
02
ff
01
02
00
00
02
01
01
01
fe
00
00
00
00
00
01
00
fe
fe
00
00
ff
fe
00
03
02
02
03
01
01
01
00
00
ff
00
00
01
01
ff
fe
ff
01
01
00
ff
00
ff
00
04
00
fe
00
00
00
ff
00
ff
ff
00
00
ff
00
fe
ff
00
fe
01
00
00
02
00
01
00
01
00
01
01
01
ff
00
00
fd
00
02
01
02
00
00
02
00
00
01
02
01
02
00
00
00
00
ff
00
fd
fa
ff
01
ff
00
01
00
ff
ff
00
ff
00
00
00
00
ff
01
00
00
00
00
02
01
00
ff
00
01
05
01
00
01
00
01
01
00
fe
00
00
00
00
00
00
00
01
00
ff
ff
00
00
00
02
02
00
00
01
01
00
ff
fe
01
03
00
fd
f9
ff
00
01
00
00
01
00
ff
00
00
01
01
02
00
fe
00
00
00
00
ff
ff
ff
00
ff
00
00
01
00
00
00
00
ff
ff
fd
01
01
00
00
00
00
00
fe
fe
01
07
00
00
00
00
00
fe
00
01
00
01
00
00
00
00
00
00
00
ff
00
00
00
01
00
00
00
00
00
00
02
02
00
00
f8
fd
ff
08
01
00
00
01
00
00
00
01
03
01
00
00
ff
00
01
01
00
00
01
00
03
01
00
fc
ff
00
01
ff
00
01
00
fe
fe
fd
00
06
ff
00
00
00
00
00
01
00
01
01
00
00
00
01
00
00
fb
f9
fd
fe
fe
00
00
00
00
00
02
ff
00
fc
ff
fc
f9
fe
00
01
00
00
ff
00
ff
ff
01
01
00
ff
ff
00
00
00
ff
01
00
02
00
00
02
01
00
01
01
00
00
01
ff
01
00
00
01
01
00
ff
ff
00
00
00
fe
fd
ff
00
04
00
00
ff
00
ff
00
00
fd
02
ff
ff
ff
00
00
00
ff
fe
00
fe
ff
00
fe
fe
fd
fe
00
01
01
00
00
01
fd
fa
00
00
00
00
01
00
00
00
00
01
00
ff
01
ff
ff
ff
00
00
00
00
00
01
00
00
00
00
01
01
01
01
00
01
00
00
ff
fd
ff
00
02
01
fe
00
01
00
05
02
fc
fa
fc
00
ff
fe
fe
ff
ff
fe
01
00
01
00
00
01
00
00
ff
01
00
00
00
00
ff
00
00
fe
ff
00
02
ff
00
ff
00
00
00
00
02
00
00
00
fe
fe
ff
00
01
01
01
00
00
00
ff
00
02
00
02
fe
ff
00
ff
fe
00
04
00
00
00
00
00
ff
00
00
00
00
00
00
ff
00
01
fe
01
00
00
00
02
01
00
00
fe
00
02
02
01
00
fe
00
00
00
00
fe
00
00
00
00
00
01
00
00
00
00
00
02
00
00
ff
00
00
00
01
00
01
00
00
ff
fe
00
00
00
ff
00
03
00
01
02
ff
01
04
00
00
01
00
00
02
00
00
02
00
00
00
00
01
ff
01
00
00
01
01
00
01
01
00
00
00
00
00
00
00
00
00
00
ff
02
01
fe
00
02
02
00
fe
fe
ff
05
ff
fe
00
00
00
00
00
00
00
ff
fe
00
00
00
01
ff
fe
00
ff
00
00
01
00
ff
00
00
00
00
01
00
01
fe
fd
00
01
01
01
00
00
00
00
00
01
00
00
00
00
01
01
00
00
ff
00
00
00
02
00
01
00
00
01
00
01
ff
00
00
ff
01
ff
01
00
00
01
00
00
00
00
00
00
01
00
00
01
ff
ff
03
fe
ff
02
01
01
03
01
00
02
00
00
01
04
01
00
ff
ff
00
00
00
00
00
00
01
00
00
01
00
ff
01
01
00
00
00
ff
01
00
01
00
ff
01
00
01
00
00
01
01
00
01
01
03
00
ff
ff
02
01
00
00
ff
00
01
02
fc
02
00
00
02
01
ff
fe
00
00
04
00
01
03
fe
ff
ff
00
fd
fd
00
00
00
02
fe
fd
00
ff
fd
fe
00
00
00
00
02
01
00
ff
fe
00
ff
01
00
04
00
ff
fe
00
00
00
00
01
00
00
00
01
00
02
ff
00
f9
fa
fc
fe
00
fe
f9
fa
fb
fd
01
00
00
fd
ff
00
02
02
fe
fa
fd
ff
00
fd
00
fe
00
fe
ff
fe
ff
00
03
ff
00
00
ff
01
00
01
fd
fe
00
fd
fe
fd
ff
01
fd
00
01
00
ff
01
06
07
07
08
05
04
03
04
03
00
00
ff
ff
00
fd
fc
fc
fc
01
ff
fe
00
00
00
ff
ff
00
fe
fd
00
00
00
00
00
00
01
01
00
fe
00
00
01
01
00
01
01
fc
00
01
fd
00
fe
00
00
01
04
03
ff
fd
00
01
01
00
fb
fb
f9
fd
fa
fd
00
00
00
01
00
00
ff
00
02
00
00
00
00
00
00
00
fe
00
00
00
00
06
02
05
03
00
03
02
00
00
00
00
00
fd
00
fd
01
01
00
00
ff
ff
00
00
01
01
00
02
ff
01
fe
03
00
ff
00
01
01
fe
ff
00
ff
01
fe
fe
fe
01
01
01
01
fd
fd
00
fe
00
00
06
04
02
02
05
02
00
02
01
f9
f5
fc
fd
fb
fc
fc
fa
fb
02
00
00
01
02
ff
00
02
00
00
fe
02
00
05
00
fe
ff
01
00
01
01
00
ff
00
00
00
fe
01
00
00
ff
00
fe
00
01
01
ff
04
00
02
05
03
01
01
01
01
fe
00
00
ff
ff
ff
ff
fd
02
00
00
01
00
02
02
ff
fe
fe
02
fe
01
00
fe
01
00
01
02
00
02
00
fe
02
00
00
00
00
02
ff
ff
02
00
fe
fd
fd
01
00
01
ff
00
00
ff
ff
ff
01
02
00
01
03
01
01
03
01
05
02
05
01
00
01
05
01
01
05
04
04
03
00
00
fe
00
00
02
01
ff
02
01
ff
02
00
04
fd
fd
00
ff
00
00
00
00
fe
00
ff
fe
fe
00
ff
fe
ff
ff
ff
00
00
01
ff
fe
03
01
02
ff
00
00
ff
00
ff
02
00
01
00
03
01
00
01
00
00
00
01
04
05
04
02
01
02
02
ff
04
04
01
fe
02
00
00
02
02
01
fc
fe
fc
05
07
ff
00
01
01
01
01
01
01
05
02
02
00
01
03
02
02
04
04
03
fe
00
00
04
00
03
00
00
00
03
02
01
02
08
fe
02
08
01
00
04
00
02
02
05
03
00
03
00
00
00
01
02
02
00
01
00
ff
00
00
fe
02
02
00
00
00
00
ff
00
00
00
00
01
01
ff
00
01
01
ff
ff
00
02
04
04
ff
00
fd
ff
ff
00
01
00
00
01
ff
01
01
00
ff
fe
fb
02
04
05
04
fd
fe
fe
02
fe
fe
ff
01
02
ff
02
00
00
00
01
03
ff
00
00
03
00
00
07
00
01
01
00
fe
fd
fd
00
fe
00
00
02
01
00
ff
00
00
03
00
00
01
ff
fb
fe
fc
00
00
ff
00
00
fd
ff
01
fe
02
04
00
01
01
01
03
03
01
00
ff
01
02
03
ff
01
00
ff
02
01
00
01
ff
01
ff
01
00
00
00
00
fe
00
00
02
ff
01
01
00
00
00
00
02
ff
01
01
ff
00
00
01
00
ff
01
ff
00
00
01
ff
02
01
fe
02
04
00
00
00
01
00
ff
00
02
01
02
02
01
01
02
05
00
00
01
02
00
ff
fe
fe
00
ff
fe
ff
02
01
00
01
00
ff
00
00
00
ff
00
fc
00
00
fe
00
ff
ff
00
00
ff
00
00
01
00
01
00
00
03
ff
00
00
fe
02
fe
02
00
00
02
02
03
00
00
05
02
03
00
00
fe
00
fc
00
00
01
01
fd
00
00
00
fc
00
00
02
01
ff
02
00
ff
ff
ff
02
ff
01
fd
fa
00
fd
00
00
fe
03
02
ff
ff
fd
01
ff
00
01
01
07
00
00
03
01
03
03
02
02
01
00
fe
00
00
00
fe
ff
05
00
01
05
00
ff
00
fe
02
00
00
ff
00
01
00
fe
ff
ff
00
ff
00
01
02
ff
ff
00
fe
00
00
fe
01
ff
01
00
fe
ff
00
ff
00
01
00
ff
fe
ff
01
00
fe
ff
fe
00
00
00
ff
fe
02
01
fb
00
fc
fe
fe
fe
06
07
00
05
01
ff
04
02
01
fc
fd
fd
fb
fc
00
fd
ff
fe
02
fe
00
fd
00
00
00
00
00
00
00
03
00
00
02
fd
00
ff
02
02
02
00
04
00
01
00
fe
ff
05
00
01
04
00
01
02
00
02
01
00
01
03
02
00
01
03
ff
00
fe
00
fe
01
fe
01
03
fe
fe
ff
00
00
02
01
fe
ff
ff
ff
ff
00
ff
00
03
fe
ff
01
00
00
01
fd
ff
01
ff
00
00
02
03
02
03
05
00
03
01
fb
fc
fe
00
00
00
ff
00
00
02
00
00
fe
02
ff
00
00
00
fd
01
01
00
ff
00
f9
fe
fd
02
02
01
00
00
00
01
00
00
03
03
01
00
02
01
00
ff
00
03
fe
02
00
ff
ff
ff
01
00
02
01
fe
ff
03
ff
ff
ff
00
02
07
ff
06
0c
02
01
02
00
fc
fe
fc
00
00
fc
ff
fe
fe
02
01
00
01
01
ff
01
01
00
fe
ff
00
00
ff
ff
fd
fe
fd
00
01
02
00
04
00
02
04
01
fe
ff
00
fd
01
01
01
00
00
ff
01
01
ff
00
fe
01
00
fe
00
00
00
02
01
01
00
01
00
03
03
01
ff
fd
00
01
00
00
00
00
01
fe
00
fd
00
ff
ff
03
00
00
01
04
03
03
01
00
ff
ff
ff
01
fe
00
00
fe
00
00
ff
fb
01
ff
00
00
00
00
ff
02
00
01
04
01
02
03
01
fe
ff
01
02
01
02
04
06
04
fc
f7
ff
fe
00
ff
00
00
fe
fe
fe
00
01
00
00
00
00
fe
01
00
00
00
01
00
01
ff
01
01
01
ff
ff
fe
fe
fc
00
fe
02
fd
ff
02
00
00
01
00
fe
00
01
fd
01
00
fe
fe
00
00
00
03
04
00
03
01
00
ff
fe
00
04
00
02
02
01
04
01
02
00
ff
00
01
00
02
01
00
fe
fd
fe
00
fd
01
00
fd
01
00
fe
fb
ff
f9
f7
fb
fc
f9
fe
00
ff
02
00
02
ff
02
02
01
00
00
fe
01
01
00
00
01
00
00
fd
ff
00
fe
00
00
00
00
00
01
01
01
03
00
02
05
00
02
01
01
01
01
00
01
00
00
00
02
ff
00
fd
00
fe
fc
ff
00
00
fe
00
fe
00
fe
00
ff
00
ff
00
01
00
00
00
02
ff
05
05
02
00
01
00
02
02
02
01
00
00
03
00
00
00
01
00
02
00
01
00
02
ff
02
03
00
ff
ff
00
fc
fc
ff
fd
00
00
00
01
00
00
ff
ff
fe
fe
00
02
00
01
00
00
02
ff
01
00
00
00
fd
03
fd
ff
00
ff
00
01
ff
01
00
00
ff
ff
fd
00
02
01
00
02
00
02
00
fe
00
00
00
00
00
fd
01
ff
00
ff
ff
fe
ff
01
fe
00
02
01
00
ff
fe
ff
02
00
01
03
00
00
fe
00
fe
00
01
00
00
ff
01
00
02
00
00
ff
00
00
01
00
02
00
00
02
00
01
00
ff
01
ff
00
00
00
04
03
00
ff
00
fe
00
fe
ff
00
00
00
01
00
fd
fb
ff
fe
ff
01
00
02
ff
ff
ff
00
ff
fe
00
00
00
01
00
01
05
04
04
03
00
02
01
00
fe
ff
02
00
00
ff
00
01
fd
fc
00
00
00
01
01
00
fc
00
00
fb
fc
00
ff
fe
00
00
03
00
03
01
00
fd
ff
ff
ff
fc
fe
00
02
fe
fe
00
00
00
fe
fe
00
00
03
00
00
ff
fe
01
fc
ff
fe
fd
01
03
ff
02
01
ff
00
00
00
01
ff
ff
00
00
00
00
fb
00
fd
fe
fe
fe
01
04
02
01
04
01
02
02
02
00
00
fe
fe
ff
ff
00
00
00
ff
ff
ff
01
00
00
fe
00
00
00
ff
ff
00
fe
fd
01
ff
00
00
03
00
ff
00
03
ff
00
00
ff
01
00
fe
fe
00
fe
ff
02
03
fc
ff
00
fb
fe
00
fd
00
fc
fa
fd
00
00
01
ff
00
00
fc
00
00
ff
fd
ff
00
fb
00
ff
ff
01
02
ff
01
00
01
00
03
00
04
00
00
00
01
01
02
ff
01
00
04
07
04
05
05
03
fe
ff
01
01
00
fd
00
00
fe
01
00
fe
02
00
02
02
03
01
02
02
00
00
00
02
00
ff
00
fa
fe
fe
fe
fe
fe
00
01
fd
fd
fe
ff
fd
fb
ff
ff
01
00
00
01
01
00
01
01
00
ff
fe
00
01
00
00
00
00
04
03
02
00
00
00
ff
ff
00
03
00
04
02
02
00
01
fd
ff
01
00
ff
00
02
fd
fe
00
00
00
00
00
fd
01
fe
00
fe
00
00
fe
ff
00
02
03
00
00
ff
00
ff
00
02
ff
00
02
00
00
fe
fd
02
ff
fe
00
fe
fe
00
01
fd
01
00
01
fe
00
01
01
00
01
00
ff
02
02
01
03
fe
02
01
00
02
03
02
00
00
ff
ff
00
ff
fd
f6
00
fc
f7
00
00
ff
ff
fe
ff
00
00
fb
00
00
fd
00
01
fd
fe
fe
f8
fa
ff
fd
fe
ff
ff
00
01
00
00
00
01
01
00
00
00
00
fe
00
ff
02
00
03
02
00
00
01
03
00
ff
fe
02
00
01
01
00
01
02
00
00
00
00
00
ff
05
ff
fd
00
fe
01
fc
01
fd
ff
01
00
fc
00
ff
00
00
00
fd
00
03
ff
00
00
ff
00
00
00
00
fd
01
fe
01
01
00
ff
00
ff
00
00
fe
00
00
00
fe
fe
00
03
02
02
04
04
00
00
00
ff
03
02
02
00
ff
01
01
01
00
01
02
02
fe
fe
01
ff
ff
00
00
fe
00
00
00
00
01
01
00
ff
ff
00
ff
fe
00
fe
00
01
ff
00
00
03
01
00
00
ff
ff
fe
ff
00
00
02
03
00
00
01
00
00
00
00
ff
ff
00
fe
00
ff
02
fe
01
00
00
00
ff
00
fe
02
00
00
01
00
01
01
00
00
00
ff
05
05
01
02
06
03
04
03
04
fa
fb
ff
fb
f9
fe
00
ff
01
01
01
ff
00
fe
01
00
00
00
00
00
02
00
02
00
00
00
02
ff
00
ff
fc
fd
ff
01
00
03
00
00
fe
fe
00
ff
fc
fc
fe
fe
fd
ff
00
fe
00
fe
ff
fc
00
01
00
00
00
00
00
fe
00
ff
00
ff
02
01
ff
00
02
02
fe
ff
00
00
ff
00
ff
ff
ff
00
fd
fc
ff
fb
fd
fd
fc
ff
fd
01
fd
fc
00
fe
fe
fd
fe
00
01
ff
fe
00
ff
ff
fe
00
00
fe
00
00
fe
ff
01
fe
00
00
03
00
01
01
00
00
01
ff
fe
03
03
00
06
00
00
03
00
fe
ff
ff
00
01
01
00
00
01
01
02
01
00
ff
00
ff
fe
00
01
ff
02
ff
00
fe
fe
ff
ff
01
fe
ff
fe
01
02
ff
ff
ff
04
04
00
02
00
ff
00
02
00
01
00
01
ff
ff
00
ff
00
01
fd
00
fd
00
00
fe
01
00
ff
02
fd
00
00
fe
ff
01
01
00
00
01
00
02
00
01
01
ff
00
02
01
00
01
01
02
02
00
00
00
ff
00
00
fe
00
ff
00
01
ff
00
02
01
00
00
00
00
00
ff
ff
00
01
01
ff
ff
00
00
02
fe
00
00
00
01
01
00
01
00
00
00
ff
fd
01
ff
fe
02
00
00
fe
ff
ff
ff
01
ff
ff
01
ff
00
ff
fe
00
fe
00
00
01
00
01
00
ff
00
01
00
00
ff
ff
01
01
01
00
01
01
00
fe
00
00
ff
00
ff
00
00
00
01
01
01
ff
00
00
02
00
00
00
ff
00
00
00
00
00
ff
01
00
02
00
01
00
01
00
00
00
00
ff
02
01
00
00
00
00
00
00
01
ff
00
00
00
00
00
fe
00
02
ff
ff
00
ff
00
fe
ff
01
01
01
ff
00
ff
fe
ff
01
01
01
00
ff
00
00
01
01
ff
02
00
01
02
00
01
02
01
ff
00
ff
fe
fe
ff
00
00
ff
00
02
01
01
03
00
01
01
00
02
ff
00
00
ff
00
00
fe
02
00
01
00
00
00
00
fe
01
fd
00
00
fe
ff
00
01
00
ff
01
fe
02
00
00
02
01
02
00
01
00
00
00
fe
ff
00
00
00
00
00
ff
00
02
00
fe
02
fe
00
02
01
01
01
01
02
00
00
01
01
ff
00
00
fe
fe
01
ff
ff
01
00
00
00
ff
ff
00
ff
ff
fe
01
ff
01
01
00
01
00
00
01
00
00
00
ff
ff
02
ff
ff
fe
00
01
00
01
ff
02
02
00
03
00
00
02
fc
ff
02
00
ff
00
01
01
00
01
00
ff
00
00
00
ff
00
01
ff
01
00
00
00
01
00
01
03
ff
00
00
ff
00
00
fd
00
00
00
ff
00
ff
fe
ff
ff
ff
00
ff
00
00
00
fe
00
01
01
00
00
00
02
00
00
00
00
ff
00
01
fe
00
00
fe
00
ff
ff
00
00
01
00
00
00
ff
01
01
00
00
00
ff
00
00
ff
00
ff
00
01
ff
00
ff
01
01
01
00
00
00
00
00
01
ff
00
00
00
01
ff
00
01
00
00
00
00
01
00
00
00
00
01
ff
00
ff
fe
fe
00
ff
ff
00
00
00
fe
00
01
00
00
00
00
00
01
ff
ff
00
fe
00
ff
00
00
00
00
00
00
fe
01
02
ff
00
00
00
fe
01
00
fe
ff
00
01
00
00
00
00
00
00
02
00
00
00
ff
04
00
ff
02
01
fe
ff
00
fe
00
ff
ff
00
00
ff
01
00
00
ff
00
00
01
01
02
00
00
01
00
00
00
00
00
00
00
00
ff
00
00
00
00
01
00
ff
ff
00
ff
01
ff
ff
00
01
00
00
00
00
00
00
01
01
ff
00
00
00
00
ff
fe
00
00
00
00
00
00
01
00
00
01
00
ff
ff
00
00
01
00
01
00
00
00
01
00
00
00
00
01
00
00
01
00
00
00
ff
01
ff
00
01
00
ff
00
ff
00
02
fd
00
02
ff
00
01
00
00
00
00
00
02
ff
ff
00
ff
00
00
fc
00
01
00
00
00
00
00
00
00
01
00
00
01
00
ff
fe
01
00
01
00
01
00
01
00
ff
00
01
00
00
00
01
00
00
01
ff
00
00
00
00
02
00
ff
01
00
00
ff
00
00
00
00
00
00
00
ff
ff
01
fd
00
01
00
ff
ff
fe
00
ff
ff
00
fe
ff
01
00
00
ff
ff
ff
01
ff
00
00
01
ff
01
00
01
ff
00
00
ff
00
ff
01
01
00
00
00
ff
00
fe
ff
00
fe
00
00
ff
00
00
01
00
00
00
00
01
ff
fe
00
00
ff
fe
00
00
ff
00
00
02
00
00
ff
00
00
00
00
00
01
01
00
00
01
00
ff
ff
fe
00
ff
ff
01
01
00
00
02
00
ff
00
fe
ff
00
00
00
00
01
ff
01
00
00
00
00
00
ff
fe
ff
00
00
00
00
00
00
ff
fe
fc
fe
fe
00
00
00
00
00
00
00
01
ff
00
fe
ff
01
01
00
01
00
fe
01
00
00
ff
ff
fe
02
03
fe
ff
02
00
00
00
02
02
00
00
01
01
00
01
ff
00
01
01
ff
00
01
00
01
01
00
00
ff
00
00
02
00
00
ff
ff
ff
00
00
fe
00
ff
00
ff
00
01
ff
fe
00
ff
fd
00
01
01
00
01
01
00
00
01
00
00
01
00
02
fe
fe
00
00
00
00
fe
01
01
00
02
00
00
02
00
00
fe
01
00
00
fe
00
01
01
00
00
00
fd
00
00
ff
00
00
ff
fe
fe
ff
ff
ff
01
00
01
00
fc
02
ff
ff
02
ff
01
01
ff
ff
00
00
00
00
01
00
ff
ff
fe
02
00
ff
00
00
ff
00
01
00
00
02
02
00
01
00
02
01
01
00
00
ff
ff
00
00
ff
01
ff
00
00
00
00
00
01
01
ff
ff
ff
01
ff
00
ff
00
00
00
00
00
00
00
02
00
00
ff
00
02
00
00
00
00
fe
00
00
01
00
fe
00
00
00
00
00
00
00
00
00
02
01
00
02
00
fe
01
00
ff
01
00
00
00
00
01
00
00
00
ff
00
00
ff
00
ff
00
00
00
00
ff
00
00
00
01
00
00
02
00
00
01
ff
ff
00
00
ff
01
ff
fd
00
01
ff
02
01
ff
02
01
00
00
00
00
01
fd
00
ff
00
00
00
00
ff
00
00
00
01
01
01
00
01
02
00
fe
02
01
fe
00
00
00
01
01
ff
ff
ff
00
ff
01
01
00
01
fe
00
01
00
01
00
00
00
02
00
ff
00
00
fe
00
02
ff
00
ff
01
00
01
00
00
02
00
00
00
ff
00
00
fe
01
ff
00
00
00
00
00
00
00
ff
ff
00
ff
00
00
00
fe
00
00
01
00
00
fe
00
02
00
ff
00
00
00
00
fe
fd
00
fe
00
01
00
ff
00
01
00
01
00
01
00
00
01
01
01
00
00
ff
00
ff
ff
00
ff
00
00
01
00
ff
ff
00
00
01
ff
00
02
00
00
00
00
00
02
01
00
02
01
00
00
00
00
ff
00
01
00
00
03
00
00
01
00
00
ff
01
ff
ff
ff
ff
00
fe
00
00
00
00
00
00
ff
00
ff
01
02
01
01
00
00
ff
ff
00
00
01
00
01
ff
00
ff
00
00
00
01
00
ff
ff
00
00
00
ff
ff
00
00
00
00
00
ff
ff
ff
00
ff
fe
ff
00
00
00
01
00
00
00
02
00
00
02
fe
00
02
00
00
00
01
01
00
00
02
01
ff
02
01
ff
00
ff
00
00
01
ff
fe
00
00
fc
00
fe
fe
00
01
00
00
01
ff
00
ff
00
fe
ff
fe
00
ff
ff
01
00
00
00
02
00
ff
01
00
01
ff
01
00
00
fe
01
00
01
ff
00
01
ff
fe
ff
01
ff
01
ff
00
00
00
01
ff
00
00
01
00
00
01
fe
00
ff
ff
01
00
ff
00
00
ff
00
00
00
ff
ff
ff
ff
ff
fe
00
00
00
ff
00
00
01
01
00
00
00
00
00
00
00
00
00
ff
01
ff
00
01
00
00
00
ff
00
00
00
ff
00
ff
00
ff
ff
ff
01
ff
00
00
00
01
00
01
01
fe
ff
00
ff
02
00
00
00
00
fe
ff
01
00
00
00
ff
00
00
01
01
01
ff
01
fe
00
00
00
00
ff
ff
02
00
00
00
00
ff
00
00
00
00
00
00
ff
00
00
00
fe
01
00
fe
01
00
ff
00
00
01
ff
02
00
00
02
00
00
fe
00
00
fe
02
01
00
ff
01
ff
ff
ff
00
ff
00
00
00
00
01
ff
ff
00
00
01
01
00
00
01
fe
00
00
ff
01
00
00
01
02
ff
01
02
ff
ff
ff
00
ff
00
01
01
00
03
02
ff
00
00
01
03
00
01
02
01
03
00
ff
01
01
ff
00
00
00
00
01
00
01
ff
ff
02
fe
ff
01
00
02
00
00
00
01
00
ff
ff
fe
fe
ff
00
ff
ff
ff
fe
00
01
01
ff
00
00
00
ff
01
01
01
ff
ff
01
02
01
ff
00
00
01
00
00
00
00
00
00
00
ff
00
00
00
ff
01
01
ff
ff
00
00
00
00
01
00
00
01
02
00
00
ff
fe
fe
fd
ff
00
fe
fe
00
00
00
00
00
00
01
00
00
01
01
01
ff
00
02
00
fe
00
02
01
ff
ff
00
00
00
00
00
fe
ff
00
ff
01
00
01
00
00
00
00
00
00
01
00
ff
ff
fe
ff
00
ff
00
00
01
00
00
00
02
01
02
00
01
ff
ff
01
00
01
01
00
fe
ff
00
01
fe
ff
00
00
fe
ff
fd
00
00
00
00
00
00
01
00
ff
01
01
00
00
00
00
01
01
00
00
01
00
00
00
ff
00
fd
00
ff
00
fe
00
00
00
fe
ff
00
00
00
00
00
01
00
00
00
00
ff
00
00
00
fe
ff
01
01
ff
ff
00
00
01
00
02
00
ff
00
ff
ff
00
00
ff
ff
fe
00
ff
ff
00
00
00
00
ff
00
00
00
01
00
00
01
00
00
00
00
01
00
00
01
00
03
01
00
fd
00
00
ff
02
00
02
02
00
00
ff
ff
ff
00
01
00
ff
ff
01
03
ff
00
03
00
fe
ff
fe
ff
ff
ff
00
ff
00
00
00
fe
02
01
00
01
01
ff
01
02
00
fe
00
fe
ff
00
00
00
00
00
ff
00
00
fe
00
01
fe
00
ff
01
ff
00
00
ff
01
ff
00
00
00
fd
ff
ff
ff
00
ff
ff
00
01
ff
00
00
00
03
00
02
01
01
00
00
fe
ff
00
00
00
00
fe
00
00
ff
00
fe
fe
00
ff
00
00
00
00
fe
01
00
00
00
00
00
01
00
00
fe
00
00
ff
ff
ff
00
00
00
ff
00
00
00
01
00
00
00
ff
00
ff
01
01
ff
00
00
00
02
01
00
ff
ff
ff
01
00
00
fe
00
ff
00
ff
00
00
00
00
00
ff
00
00
00
ff
00
ff
00
00
00
00
00
00
fe
01
00
fe
ff
00
fe
01
00
00
03
ff
00
00
ff
ff
ff
ff
01
01
ff
fe
01
ff
00
01
01
00
00
00
01
ff
00
00
00
00
00
00
ff
ff
ff
ff
00
ff
00
ff
01
02
00
01
01
00
ff
ff
00
00
ff
00
ff
fe
01
02
00
ff
01
01
01
00
00
ff
01
00
ff
00
00
00
00
00
00
00
00
00
01
00
00
00
00
00
00
00
00
00
00
00
00
01
fe
00
01
ff
01
ff
00
00
00
ff
00
04
02
01
04
00
00
01
01
00
ff
ff
fe
01
00
00
00
00
00
00
00
00
ff
00
ff
00
00
01
00
ff
00
fe
fe
ff
02
01
00
00
01
ff
01
01
ff
01
00
00
ff
fe
ff
00
00
00
00
01
ff
01
00
00
01
00
ff
03
00
ff
ff
00
00
00
00
00
00
00
00
00
00
02
ff
00
ff
00
00
00
ff
ff
00
ff
fe
fe
fe
00
fe
00
00
00
00
00
00
00
00
01
01
fe
00
02
01
00
01
ff
ff
ff
01
ff
01
00
ff
00
01
00
00
01
ff
00
00
01
00
ff
01
00
01
00
ff
00
00
00
00
ff
ff
00
00
00
00
00
00
00
00
02
01
00
00
02
00
00
00
01
00
00
02
00
00
01
00
00
00
01
ff
01
00
ff
ff
00
00
01
01
00
00
00
00
01
01
00
01
ff
00
00
01
00
00
00
ff
01
00
00
00
00
ff
00
00
ff
00
01
00
00
00
00
00
01
00
ff
01
00
01
00
00
00
ff
00
00
00
00
01
ff
00
01
01
02
00
00
00
ff
fe
00
00
00
ff
00
00
00
00
ff
ff
00
ff
00
00
01
00
01
00
00
00
00
00
00
ff
00
00
ff
ff
00
00
ff
ff
00
00
ff
00
fe
fe
00
ff
00
ff
00
00
00
00
ff
00
00
00
01
01
ff
00
ff
00
00
00
ff
00
01
00
00
00
00
00
00
00
00
ff
00
00
00
00
00
01
00
fe
ff
ff
00
00
01
00
00
01
00
01
ff
00
00
ff
ff
00
00
00
01
00
01
00
00
01
01
01
00
00
00
00
00
00
00
01
00
00
00
01
00
00
00
00
00
00
01
00
00
00
00
ff
00
ff
00
00
01
ff
02
00
00
00
01
01
00
00
00
02
02
00
02
00
01
fe
00
fe
00
00
00
00
00
ff
01
ff
00
00
ff
00
00
ff
ff
00
00
ff
00
01
00
00
00
ff
00
01
00
00
00
ff
00
00
00
00
ff
ff
00
ff
00
00
00
00
00
01
01
02
02
01
00
00
00
00
01
01
ff
ff
00
00
00
ff
01
01
01
00
01
00
00
00
00
00
00
ff
00
01
01
01
00
00
ff
00
ff
fe
00
00
ff
00
00
01
00
00
01
ff
01
00
01
00
00
00
00
00
fe
fd
00
00
fe
01
00
00
00
00
ff
01
00
00
00
00
00
ff
ff
fe
00
00
00
00
00
01
00
00
00
00
ff
00
00
ff
01
ff
fe
00
ff
00
01
ff
00
00
00
ff
00
00
00
01
ff
00
00
01
00
00
01
00
00
ff
00
00
00
00
00
00
01
00
02
02
01
01
00
00
ff
ff
01
02
01
00
00
00
00
01
00
00
00
00
ff
01
00
01
00
00
ff
00
00
01
00
ff
00
00
00
ff
00
ff
ff
ff
01
00
00
00
00
00
00
01
00
00
00
00
00
00
00
00
00
00
ff
ff
00
01
00
00
01
00
00
00
00
00
00
00
00
00
01
00
ff
01
00
00
00
02
02
00
00
02
00
fe
00
00
00
00
01
00
00
ff
00
00
ff
00
00
00
00
fe
00
00
00
ff
00
01
ff
ff
00
00
ff
00
00
ff
ff
ff
ff
ff
00
00
00
00
00
00
00
01
01
01
ff
00
ff
ff
ff
01
00
00
00
00
00
01
01
01
00
01
00
01
00
01
ff
00
00
00
00
fe
00
00
01
00
01
ff
01
ff
ff
ff
00
00
00
ff
00
ff
fe
00
ff
00
00
00
ff
00
00
ff
ff
ff
ff
00
00
02
03
01
03
03
01
03
02
01
00
00
00
00
01
ff
ff
ff
00
00
00
00
ff
00
ff
01
00
00
fe
00
ff
ff
ff
00
00
ff
00
00
00
00
00
00
00
01
00
00
fe
00
fe
00
ff
00
00
ff
ff
01
01
00
01
01
00
00
00
00
00
00
00
00
00
00
ff
00
00
00
00
00
00
00
00
00
ff
ff
00
00
00
00
00
ff
ff
00
ff
00
ff
00
00
00
01
00
00
00
ff
00
01
02
02
00
ff
00
00
ff
00
00
00
00
00
02
00
01
ff
00
00
01
00
00
01
ff
00
00
00
00
01
00
01
01
ff
00
00
00
00
00
01
02
ff
00
00
00
00
00
00
ff
00
00
00
01
ff
00
01
ff
00
00
00
00
00
00
00
01
00
00
01
00
ff
00
00
fe
fe
00
00
00
ff
00
00
00
ff
00
00
ff
ff
00
00
00
01
00
00
00
00
00
02
00
01
01
ff
01
00
00
ff
00
00
00
00
00
00
01
ff
00
00
00
00
00
00
01
00
fe
ff
ff
00
00
fe
00
00
00
ff
ff
00
00
01
01
01
00
01
02
00
00
01
00
ff
fe
ff
00
ff
00
00
ff
ff
00
00
ff
00
00
01
01
00
00
ff
00
00
ff
00
00
00
00
00
00
00
00
00
01
00
ff
00
ff
fe
ff
ff
00
00
ff
00
fe
00
00
01
00
00
ff
00
00
ff
ff
01
00
ff
00
ff
00
00
ff
00
fe
fe
ff
ff
ff
00
00
00
ff
00
00
00
00
00
ff
00
00
00
00
ff
00
00
ff
ff
00
ff
ff
ff
00
00
ff
ff
00
00
00
fe
02
01
00
ff
ff
00
00
00
00
00
ff
ff
01
01
00
00
00
00
00
00
ff
00
ff
00
ff
00
ff
00
00
00
01
00
00
01
00
00
00
ff
00
00
00
00
01
00
00
02
00
00
01
02
01
00
00
01
01
00
00
00
00
ff
00
00
00
fe
00
00
01
ff
00
01
00
00
00
00
00
ff
00
00
00
00
00
00
00
01
00
ff
01
01
00
00
ff
00
ff
ff
ff
00
00
ff
00
00
00
00
ff
00
00
00
ff
01
00
ff
00
fe
00
00
ff
01
00
00
01
01
01
01
00
00
ff
00
00
00
ff
00
00
ff
01
00
01
ff
ff
ff
fe
fe
ff
ff
ff
fe
ff
00
00
01
00
00
00
ff
00
fe
00
fe
01
00
00
02
01
00
ff
00
ff
ff
00
ff
ff
00
ff
00
00
00
00
01
00
00
00
01
01
00
00
01
00
00
01
00
01
fe
00
00
00
00
01
00
00
00
00
ff
00
ff
00
00
01
00
01
00
02
00
00
00
00
00
00
01
00
00
00
01
00
00
00
01
00
ff
00
00
01
ff
01
01
ff
00
01
ff
01
00
ff
00
00
00
00
00
01
00
00
00
00
00
00
00
00
00
ff
00
00
ff
00
00
ff
00
00
00
00
ff
00
00
00
01
00
01
00
00
00
00
ff
00
00
01
00
ff
00
00
00
00
01
00
00
00
00
ff
00
01
00
00
00
00
01
00
01
00
02
00
00
00
01
01
ff
00
00
00
ff
00
01
00
ff
02
00
00
00
00
01
00
00
01
02
00
00
00
00
00
00
00
00
00
01
00
00
01
00
00
00
00
00
00
00
00
ff
ff
00
00
01
00
00
ff
00
00
00
00
00
00
01
ff
ff
00
ff
00
00
00
01
00
01
00
01
00
00
00
ff
01
ff
00
00
01
ff
00
ff
02
00
02
00
00
00
00
00
ff
ff
01
ff
00
ff
ff
00
fe
00
01
00
ff
00
00
00
00
00
ff
00
01
00
00
00
00
00
00
ff
00
fe
fe
00
00
01
01
ff
ff
00
ff
00
00
01
00
00
00
00
00
00
ff
00
01
00
02
01
01
00
ff
ff
00
00
00
00
00
00
00
ff
00
00
00
01
01
ff
01
01
00
00
ff
00
00
00
00
00
00
00
00
00
00
00
00
00
ff
ff
ff
00
00
00
01
00
ff
00
00
ff
00
fe
00
fd
00
01
02
00
ff
00
00
ff
01
00
00
00
ff
00
ff
00
00
ff
00
ff
00
00
01
01
ff
ff
00
00
00
00
01
02
00
00
00
00
ff
00
00
02
00
01
00
00
fe
00
00
00
ff
01
00
00
00
ff
00
00
00
00
ff
ff
ff
00
01
01
00
01
00
00
ff
00
00
00
00
00
ff
00
00
00
02
00
ff
01
ff
00
00
00
01
00
01
01
ff
00
00
ff
fe
00
00
00
00
01
00
00
00
00
00
00
ff
00
00
00
ff
00
00
00
00
00
00
00
00
00
ff
00
00
ff
fe
00
ff
00
00
01
01
00
02
03
00
00
00
00
ff
00
00
fe
00
00
00
00
00
01
00
00
00
00
00
ff
00
00
02
ff
00
00
00
01
00
00
00
01
ff
ff
ff
ff
00
00
00
00
00
00
01
00
00
00
ff
ff
ff
ff
ff
ff
00
fe
00
00
01
01
00
00
01
00
00
02
00
01
00
00
00
00
00
00
00
00
00
00
00
00
00
00
00
00
00
00
ff
01
00
ff
00
00
00
00
01
00
00
00
00
00
00
00
01
00
00
00
00
00
00
01
00
ff
00
00
ff
00
ff
00
00
00
00
01
ff
fd
00
ff
ff
01
00
00
02
00
00
01
00
00
00
00
ff
01
00
00
01
02
ff
02
00
00
00
00
00
00
00
00
00
00
00
00
01
02
00
01
02
ff
00
ff
00
00
00
ff
01
00
00
00
00
00
ff
00
01
00
00
ff
01
00
ff
00
01
00
01
01
00
ff
00
00
00
01
00
ff
00
ff
ff
ff
01
00
00
00
00
00
00
00
00
01
00
01
ff
02
fe
00
00
00
00
00
01
01
01
00
00
00
00
00
00
ff
fe
ff
ff
01
00
00
01
00
ff
01
ff
00
00
00
00
00
00
00
00
00
00
00
00
00
00
00
00
00
00
00
01
00
01
01
02
00
ff
ff
ff
00
ff
00
00
00
00
ff
ff
ff
00
00
ff
fe
00
01
00
00
00
ff
00
01
00
01
ff
01
ff
fe
00
ff
00
00
01
01
01
00
ff
ff
ff
00
00
00
00
00
00
01
00
ff
ff
00
ff
00
00
00
ff
00
fe
00
00
01
fe
ff
ff
fe
01
ff
ff
01
ff
00
00
00
fe
00
00
00
00
00
00
00
01
00
ff
ff
ff
00
00
00
fe
ff
ff
ff
ff
00
ff
00
00
00
00
00
00
ff
ff
01
00
01
00
00
ff
00
00
00
00
00
02
00
01
00
01
01
00
ff
01
01
00
ff
00
ff
00
ff
00
00
ff
00
ff
01
01
00
00
ff
00
ff
01
00
00
ff
fe
00
00
02
00
00
ff
ff
00
00
00
01
01
01
00
01
00
00
00
00
00
00
00
00
00
00
ff
00
00
01
ff
00
00
00
00
00
01
00
00
00
01
00
00
00
ff
00
00
00
01
00
ff
00
00
00
00
01
00
00
ff
ff
00
00
ff
ff
00
00
00
00
00
00
00
fe
00
ff
ff
ff
00
00
00
00
00
00
00
ff
ff
00
00
00
00
00
01
00
02
00
00
00
00
ff
00
00
00
00
01
00
00
ff
00
00
01
00
00
00
ff
00
00
00
ff
00
ff
00
ff
ff
01
01
ff
ff
ff
00
ff
01
fe
00
00
fe
fe
00
00
ff
ff
00
00
00
01
00
01
ff
01
ff
01
02
00
01
02
00
00
ff
00
01
00
01
01
00
00
00
01
01
02
03
03
01
ff
00
00
ff
ff
00
00
ff
00
02
00
00
01
00
00
00
ff
ff
00
00
01
00
00
00
00
01
00
00
01
00
00
ff
00
01
00
00
ff
00
01
00
ff
fe
01
00
ff
00
ff
00
01
00
00
00
00
ff
01
ff
01
00
00
01
ff
01
01
00
00
00
00
ff
00
00
01
00
00
00
00
00
00
00
01
ff
00
00
00
00
00
00
00
00
00
00
00
fe
ff
00
00
fe
00
00
ff
ff
01
00
00
00
ff
01
ff
00
00
ff
00
ff
00
00
00
00
ff
00
00
00
00
01
01
01
00
00
ff
ff
ff
00
ff
fe
00
00
00
00
00
01
ff
00
00
00
02
ff
00
00
01
01
00
01
00
fe
02
00
00
01
ff
ff
00
00
ff
00
00
00
00
00
00
00
00
00
ff
ff
00
ff
ff
ff
02
01
02
04
01
01
00
01
ff
ff
ff
00
ff
ff
00
00
00
00
00
00
00
fe
00
00
00
ff
00
00
ff
00
00
00
00
00
00
00
00
00
00
00
00
01
01
00
00
00
ff
02
00
00
01
ff
00
00
00
ff
fe
00
fe
ff
00
fe
ff
00
00
01
ff
01
01
00
ff
00
00
00
00
01
01
00
01
00
01
02
01
02
00
01
01
01
00
00
00
fe
00
00
00
00
00
00
00
00
00
00
00
00
00
ff
ff
00
ff
00
01
00
00
01
00
00
00
00
00
00
02
ff
ff
01
01
01
00
00
00
00
00
ff
00
00
00
00
00
fe
00
fe
fc
ff
00
ff
01
ff
00
ff
ff
fe
ff
00
ff
fe
fe
ff
fe
fe
00
00
ff
00
01
ff
00
00
ff
00
00
00
01
01
00
ff
01
00
00
00
00
01
00
00
00
00
00
01
00
01
00
00
00
00
00
ff
00
00
00
ff
01
00
00
02
00
00
03
01
00
01
00
00
00
00
fe
02
00
00
00
ff
00
00
00
00
ff
ff
ff
00
02
02
00
02
01
01
01
01
00
00
00
02
fe
00
01
ff
ff
00
00
00
00
00
00
00
fd
ff
00
00
01
00
00
01
01
00
00
00
00
00
00
00
00
00
00
ff
00
00
ff
00
ff
fd
00
00
ff
00
ff
ff
00
00
00
00
01
00
00
00
01
00
00
01
00
ff
ff
00
fd
01
ff
fe
01
fe
fd
02
00
00
00
fe
ff
ff
fd
fd
fe
00
ff
00
ff
00
ff
00
00
01
ff
00
00
01
02
00
00
ff
ff
01
00
00
00
00
01
00
fe
ff
ff
01
01
fe
00
ff
fe
ff
01
fe
fe
00
fe
00
00
00
fe
00
ff
00
01
00
00
02
01
00
00
01
00
ff
01
fe
00
01
00
00
01
01
01
01
00
00
ff
00
00
00
00
00
ff
01
01
00
ff
ff
01
ff
00
00
00
ff
00
00
00
00
00
00
00
ff
00
00
01
00
01
fe
ff
00
00
00
ff
00
ff
00
00
ff
ff
00
00
00
00
ff
ff
fd
00
fe
00
ff
00
00
ff
01
01
04
00
00
00
00
00
01
fe
00
01
ff
00
01
ff
00
00
00
00
01
00
00
ff
00
01
00
ff
ff
00
fe
00
03
00
00
00
00
01
00
00
00
01
00
fe
ff
ff
00
00
ff
01
02
fe
00
00
00
ff
02
ff
00
00
00
fe
fe
00
00
00
01
00
00
01
00
00
00
ff
ff
00
00
00
ff
00
00
00
00
ff
00
ff
ff
00
00
00
01
01
03
fe
fe
01
00
fd
00
00
00
ff
ff
ff
00
00
00
ff
00
ff
00
00
01
01
00
ff
fe
ff
00
00
ff
00
00
00
00
00
02
01
02
01
02
01
00
01
00
00
fe
01
ff
ff
00
00
00
01
ff
00
ff
ff
00
00
00
01
00
fe
00
00
ff
ff
01
00
00
ff
ff
00
ff
01
01
ff
01
01
fe
fd
00
00
fe
ff
00
ff
ff
ff
01
00
00
00
ff
01
00
ff
02
00
00
00
00
00
00
00
00
01
00
00
00
00
00
00
ff
00
00
00
01
00
ff
00
00
00
00
ff
ff
ff
ff
ff
00
ff
01
00
ff
00
00
01
00
00
00
02
ff
00
ff
ff
fe
fd
fe
00
ff
fe
ff
01
01
01
01
00
01
01
00
00
fe
ff
ff
ff
ff
00
01
00
00
00
00
01
00
00
ff
ff
00
00
00
00
00
ff
00
00
00
00
00
00
00
00
ff
00
00
00
00
00
fe
00
00
ff
00
00
00
ff
00
00
00
00
00
00
ff
00
00
00
00
00
ff
00
00
ff
00
01
00
00
ff
ff
ff
ff
00
00
ff
00
00
00
00
00
fe
ff
00
01
ff
00
fe
ff
ff
fe
fe
00
fe
00
00
ff
00
00
00
00
01
00
00
ff
ff
00
fe
fd
ff
01
00
00
00
01
00
00
00
00
00
00
00
00
ff
00
ff
00
00
00
ff
00
00
ff
01
ff
00
00
00
00
01
01
02
01
00
00
00
01
00
00
00
ff
ff
ff
00
ff
ff
00
00
01
00
01
ff
02
01
00
ff
ff
ff
00
ff
00
00
ff
00
ff
00
00
ff
02
00
ff
00
01
01
01
00
00
02
00
ff
00
00
00
00
ff
ff
01
fe
00
00
00
ff
00
02
02
01
00
00
01
01
02
01
00
00
00
ff
ff
00
00
00
01
ff
00
00
00
00
00
01
ff
02
00
00
fd
00
ff
00
00
00
ff
00
00
ff
ff
00
00
01
00
01
ff
01
00
00
00
01
ff
01
00
00
ff
00
00
00
02
00
fe
ff
00
00
ff
01
ff
00
02
ff
00
00
00
00
00
00
00
ff
ff
ff
00
01
00
ff
00
00
00
fe
fe
00
ff
00
00
01
00
00
00
00
00
ff
ff
00
fe
00
00
00
00
ff
ff
00
ff
00
00
00
00
00
00
00
00
00
00
00
01
00
ff
01
ff
00
ff
00
00
02
00
00
00
ff
00
00
00
00
03
00
ff
00
00
00
00
00
00
